{
  "version": "1.0",
  "truncation": null,
  "padding": null,
  "added_tokens": [
    {
      "id": 0,
      "content": "<card>",
      "single_word": false,
      "lstrip": false,
      "rstrip": false,
      "normalized": false,
      "special": true
    },
    {
      "id": 1,
      "content": "</card>",
      "single_word": false,
      "lstrip": false,
      "rstrip": false,
      "normalized": false,
      "special": true
    }
  ],
  "normalizer": null,
  "pre_tokenizer": {
    "type": "ByteLevel",
    "add_prefix_space": false,
    "trim_offsets": true,
    "use_regex": true
  },
  "post_processor": {
    "type": "ByteLevel",
    "add_prefix_space": true,
    "trim_offsets": false,
    "use_regex": true
  },
  "decoder": {
    "type": "ByteLevel",
    "add_prefix_space": true,
    "trim_offsets": true,
    "use_regex": true
  },
  "model": {
    "type": "BPE",
    "dropout": null,
    "unk_token": null,
    "continuing_subword_prefix": null,
    "end_of_word_suffix": null,
    "fuse_unk": false,
    "byte_fallback": false,
    "ignore_merges": false,
    "vocab": {
      "<card>": 0,
      "</card>": 1,
      "!": 2,
      "\"": 3,
      "#": 4,
      "$": 5,
      "%": 6,
      "&": 7,
      "'": 8,
      "(": 9,
      ")": 10,
      "*": 11,
      "+": 12,
      ",": 13,
      "-": 14,
      ".": 15,
      "/": 16,
      "0": 17,
      "1": 18,
      "2": 19,
      "3": 20,
      "4": 21,
      "5": 22,
      "6": 23,
      "7": 24,
      "8": 25,
      "9": 26,
      ":": 27,
      ";": 28,
      "<": 29,
      "=": 30,
      ">": 31,
      "?": 32,
      "@": 33,
      "A": 34,
      "B": 35,
      "C": 36,
      "D": 37,
      "E": 38,
      "F": 39,
      "G": 40,
      "H": 41,
      "I": 42,
      "J": 43,
      "K": 44,
      "L": 45,
      "M": 46,
      "N": 47,
      "O": 48,
      "P": 49,
      "Q": 50,
      "R": 51,
      "S": 52,
      "T": 53,
      "U": 54,
      "V": 55,
      "W": 56,
      "X": 57,
      "Y": 58,
      "Z": 59,
      "[": 60,
      "\\": 61,
      "]": 62,
      "^": 63,
      "_": 64,
      "`": 65,
      "a": 66,
      "b": 67,
      "c": 68,
      "d": 69,
      "e": 70,
      "f": 71,
      "g": 72,
      "h": 73,
      "i": 74,
      "j": 75,
      "k": 76,
      "l": 77,
      "m": 78,
      "n": 79,
      "o": 80,
      "p": 81,
      "q": 82,
      "r": 83,
      "s": 84,
      "t": 85,
      "u": 86,
      "v": 87,
      "w": 88,
      "x": 89,
      "y": 90,
      "z": 91,
      "{": 92,
      "|": 93,
      "}": 94,
      "~": 95,
      "¡": 96,
      "¢": 97,
      "£": 98,
      "¤": 99,
      "¥": 100,
      "¦": 101,
      "§": 102,
      "¨": 103,
      "©": 104,
      "ª": 105,
      "«": 106,
      "¬": 107,
      "®": 108,
      "¯": 109,
      "°": 110,
      "±": 111,
      "²": 112,
      "³": 113,
      "´": 114,
      "µ": 115,
      "¶": 116,
      "·": 117,
      "¸": 118,
      "¹": 119,
      "º": 120,
      "»": 121,
      "¼": 122,
      "½": 123,
      "¾": 124,
      "¿": 125,
      "À": 126,
      "Á": 127,
      "Â": 128,
      "Ã": 129,
      "Ä": 130,
      "Å": 131,
      "Æ": 132,
      "Ç": 133,
      "È": 134,
      "É": 135,
      "Ê": 136,
      "Ë": 137,
      "Ì": 138,
      "Í": 139,
      "Î": 140,
      "Ï": 141,
      "Ð": 142,
      "Ñ": 143,
      "Ò": 144,
      "Ó": 145,
      "Ô": 146,
      "Õ": 147,
      "Ö": 148,
      "×": 149,
      "Ø": 150,
      "Ù": 151,
      "Ú": 152,
      "Û": 153,
      "Ü": 154,
      "Ý": 155,
      "Þ": 156,
      "ß": 157,
      "à": 158,
      "á": 159,
      "â": 160,
      "ã": 161,
      "ä": 162,
      "å": 163,
      "æ": 164,
      "ç": 165,
      "è": 166,
      "é": 167,
      "ê": 168,
      "ë": 169,
      "ì": 170,
      "í": 171,
      "î": 172,
      "ï": 173,
      "ð": 174,
      "ñ": 175,
      "ò": 176,
      "ó": 177,
      "ô": 178,
      "õ": 179,
      "ö": 180,
      "÷": 181,
      "ø": 182,
      "ù": 183,
      "ú": 184,
      "û": 185,
      "ü": 186,
      "ý": 187,
      "þ": 188,
      "ÿ": 189,
      "Ā": 190,
      "ā": 191,
      "Ă": 192,
      "ă": 193,
      "Ą": 194,
      "ą": 195,
      "Ć": 196,
      "ć": 197,
      "Ĉ": 198,
      "ĉ": 199,
      "Ċ": 200,
      "ċ": 201,
      "Č": 202,
      "č": 203,
      "Ď": 204,
      "ď": 205,
      "Đ": 206,
      "đ": 207,
      "Ē": 208,
      "ē": 209,
      "Ĕ": 210,
      "ĕ": 211,
      "Ė": 212,
      "ė": 213,
      "Ę": 214,
      "ę": 215,
      "Ě": 216,
      "ě": 217,
      "Ĝ": 218,
      "ĝ": 219,
      "Ğ": 220,
      "ğ": 221,
      "Ġ": 222,
      "ġ": 223,
      "Ģ": 224,
      "ģ": 225,
      "Ĥ": 226,
      "ĥ": 227,
      "Ħ": 228,
      "ħ": 229,
      "Ĩ": 230,
      "ĩ": 231,
      "Ī": 232,
      "ī": 233,
      "Ĭ": 234,
      "ĭ": 235,
      "Į": 236,
      "į": 237,
      "İ": 238,
      "ı": 239,
      "Ĳ": 240,
      "ĳ": 241,
      "Ĵ": 242,
      "ĵ": 243,
      "Ķ": 244,
      "ķ": 245,
      "ĸ": 246,
      "Ĺ": 247,
      "ĺ": 248,
      "Ļ": 249,
      "ļ": 250,
      "Ľ": 251,
      "ľ": 252,
      "Ŀ": 253,
      "ŀ": 254,
      "Ł": 255,
      "ł": 256,
      "Ń": 257,
      "čĊ": 258,
      "on": 259,
      "Ġt": 260,
      "ar": 261,
      "Ġc": 262,
      "er": 263,
      "an": 264,
      "Ġth": 265,
      "ou": 266,
      "ard": 267,
      "mon": 268,
      "st": 269,
      "you": 270,
      "Ġyou": 271,
      "at": 272,
      "Ġs": 273,
      "pe": 274,
      "de": 275,
      "is": 276,
      "en": 277,
      "ty": 278,
      "ster": 279,
      "in": 280,
      "Ġmon": 281,
      "Ġmonster": 282,
      "Ġo": 283,
      "ro": 284,
      "Ġf": 285,
      "ri": 286,
      "ac": 287,
      "Ġthe": 288,
      "al": 289,
      "Ġ1": 290,
      "Ġe": 291,
      "Ġcard": 292,
      "card": 293,
      "att": 294,
      "Ġyour": 295,
      "ec": 296,
      "type": 297,
      "Ġthis": 298,
      "ti": 299,
      "Ġb": 300,
      "Ġcan": 301,
      "le": 302,
      "se": 303,
      "00": 304,
      "ect": 305,
      "ff": 306,
      "Ġp": 307,
      "ffect": 308,
      "Ġd": 309,
      "mmon": 310,
      "am": 311,
      "el": 312,
      "Ġi": 313,
      "rar": 314,
      "Ġ\"": 315,
      "ur": 316,
      "Ġon": 317,
      "Ġde": 318,
      "ra": 319,
      "Ġa": 320,
      "tion": 321,
      "Ġw": 322,
      "Ġsu": 323,
      "and": 324,
      "ed": 325,
      "Ġto": 326,
      "Ġspe": 327,
      "ame": 328,
      "Ġof": 329,
      "Ġg": 330,
      "or": 331,
      "name": 332,
      "Ġsummon": 333,
      "sc": 334,
      "ity": 335,
      "rip": 336,
      "scrip": 337,
      "scription": 338,
      "</": 339,
      "description": 340,
      "rarity": 341,
      "ent": 342,
      "ack": 343,
      "urn": 344,
      "Ġeffect": 345,
      "ut": 346,
      "Ġh": 347,
      "Ġle": 348,
      "rom": 349,
      "attack": 350,
      "ge": 351,
      "ï¼": 352,
      "ï¼ı": 353,
      "Ġturn": 354,
      "su": 355,
      "ial": 356,
      "Ġfrom": 357,
      "vel": 358,
      "ce": 359,
      "rib": 360,
      "Ġlevel": 361,
      "sub": 362,
      "ribut": 363,
      "Ġin": 364,
      "ing": 365,
      "re": 366,
      "Ġif": 367,
      "ribute": 368,
      "Ġcon": 369,
      "th": 370,
      "fen": 371,
      "Ġu": 372,
      "fense": 373,
      "Ġm": 374,
      "ran": 375,
      "Ġcont": 376,
      "rank": 377,
      "ck": 378,
      "Ġis": 379,
      "cial": 380,
      "Ġor": 381,
      "Ġspecial": 382,
      "pp": 383,
      "attribute": 384,
      "rol": 385,
      "Ġn": 386,
      "Ġit": 387,
      "Ġ2": 388,
      "Ġcontrol": 389,
      "defense": 390,
      "Ġ[": 391,
      "Ġopp": 392,
      "onent": 393,
      "Ġopponent": 394,
      "ll": 395,
      "Ġfi": 396,
      "ly": 397,
      "effect": 398,
      "Ġl": 399,
      "Ġper": 400,
      "Ġhand": 401,
      "Ġmonsters": 402,
      "Ġgy": 403,
      "Ġco": 404,
      "get": 405,
      "Ġand": 406,
      "arget": 407,
      "Ġtarget": 408,
      "Ġcommon": 409,
      "Ġdeck": 410,
      "Ġonce": 411,
      "Ġrar": 412,
      "Ġonly": 413,
      "Ġrare": 414,
      "qu": 415,
      "ach": 416,
      "Ġdest": 417,
      "eld": 418,
      "end": 419,
      "roy": 420,
      "Ġdestroy": 421,
      "Ġthat": 422,
      "Ġfield": 423,
      "Ġwh": 424,
      "'s": 425,
      "Ġspell": 426,
      "ace": 427,
      "si": 428,
      "ve": 429,
      "Ġbe": 430,
      "Ġby": 431,
      "ig": 432,
      "ot": 433,
      "vat": 434,
      "Ġac": 435,
      "Ġsummoned": 436,
      "Ġacti": 437,
      "Ġactivat": 438,
      "Ġface": 439,
      "tra": 440,
      "Ġuse": 441,
      "igh": 442,
      "Ġat": 443,
      "up": 444,
      "Ġan": 445,
      "Ġex": 446,
      "Ġbatt": 447,
      "Ġre": 448,
      "ha": 449,
      "Ġbattle": 450,
      "ith": 451,
      "Ġ4": 452,
      "ish": 453,
      "Ġ3": 454,
      "Ġ(": 455,
      "000": 456,
      "ark": 457,
      "qui": 458,
      "uring": 459,
      "ic": 460,
      "ight": 461,
      "not": 462,
      "Ġatk": 463,
      "Ġduring": 464,
      "orm": 465,
      "Ġcannot": 466,
      "ater": 467,
      "Ġal": 468,
      "Ġeach": 469,
      "ain": 470,
      "Ġpo": 471,
      "Ġattack": 472,
      "ch": 473,
      "anish": 474,
      "Ġwhen": 475,
      "rap": 476,
      "Ġbanish": 477,
      "ama": 478,
      "rag": 479,
      "ir": 480,
      "Ġdark": 481,
      "hase": 482,
      "um": 483,
      "Ġphase": 484,
      "Ġwith": 485,
      "un": 486,
      "es": 487,
      "ragon": 488,
      "amage": 489,
      "500": 490,
      "Ġtrap": 491,
      "Ġdamage": 492,
      "ormal": 493,
      "Ġas": 494,
      "Ġdestroyed": 495,
      "Ġeffects": 496,
      "Ġthen": 497,
      "pt": 498,
      "ay": 499,
      "ow": 500,
      "cept": 501,
      "Ġactivate": 502,
      "per": 503,
      "dd": 504,
      "Ġst": 505,
      "om": 506,
      "Ġfor": 507,
      "sion": 508,
      "Ġpl": 509,
      "Ġnormal": 510,
      "Ġcards": 511,
      "Ġgra": 512,
      "ast": 513,
      "Ġend": 514,
      "Ġdo": 515,
      "Ġlight": 516,
      "Ġgrave": 517,
      "Ġne": 518,
      "yard": 519,
      "xy": 520,
      "Ġgraveyard": 521,
      "Ġadd": 522,
      "arri": 523,
      "as": 524,
      "arth": 525,
      "usion": 526,
      "ter": 527,
      "Ġmater": 528,
      "sition": 529,
      "Ġposition": 530,
      "Ġmaterial": 531,
      "Ġcontrols": 532,
      "xyz": 533,
      "Ġexcept": 534,
      "Ġdragon": 535,
      "so": 536,
      "ber": 537,
      "Ġearth": 538,
      "arrior": 539,
      "800": 540,
      "quip": 541,
      "ul": 542,
      "Ġgain": 543,
      "Ġequip": 544,
      "Ġun": 545,
      "ion": 546,
      "yn": 547,
      "Ġ0": 548,
      "Ġsuper": 549,
      "ad": 550,
      "Ġits": 551,
      "Ġul": 552,
      "Ġz": 553,
      "ink": 554,
      "âĹ": 555,
      "âĹı": 556,
      "Ġ1000": 557,
      "Ġsend": 558,
      "Ġwhi": 559,
      "Ġultra": 560,
      "ynch": 561,
      "Ġsent": 562,
      "ynchro": 563,
      "uner": 564,
      "ine": 565,
      "Ġwhile": 566,
      "ak": 567,
      "):": 568,
      "ther": 569,
      "quick": 570,
      "Ġ-": 571,
      "Ġall": 572,
      ".âĹı": 573,
      "Ġar": 574,
      "rit": 575,
      "Ġxyz": 576,
      "Ġk": 577,
      "ous": 578,
      "fl": 579,
      "warrior": 580,
      "et": 581,
      "ant": 582,
      "Ġfusion": 583,
      "Ġextra": 584,
      "Ġbeast": 585,
      "Ġalso": 586,
      "Ġdefense": 587,
      "Ġsec": 588,
      "Ġch": 589,
      "ld": 590,
      "ss": 591,
      "gat": 592,
      "achine": 593,
      "600": 594,
      "Ġnegat": 595,
      "Ġlink": 596,
      "til": 597,
      "pen": 598,
      "ose": 599,
      "ual": 600,
      "Ġzon": 601,
      "ret": 602,
      "ind": 603,
      "Ġgains": 604,
      "fi": 605,
      "qual": 606,
      "Ġtribute": 607,
      "Ġequal": 608,
      "Ġsecret": 609,
      "Ġ500": 610,
      "Ġuntil": 611,
      "ust": 612,
      "ag": 613,
      "Ġ2000": 614,
      "200": 615,
      "Ġsynchro": 616,
      "Ġwater": 617,
      "ritual": 618,
      "Ġsh": 619,
      "ave": 620,
      "Ġother": 621,
      "Ġfire": 622,
      "inu": 623,
      "Ġ5": 624,
      "Ġcontinu": 625,
      "aster": 626,
      "Ġcontinuous": 627,
      "Ġzone": 628,
      "umber": 629,
      "oun": 630,
      "id": 631,
      "ep": 632,
      "if": 633,
      "Ġmain": 634,
      "ict": 635,
      "rig": 636,
      "raw": 637,
      "Ġ7": 638,
      "pend": 639,
      "flict": 640,
      "Ġinflict": 641,
      "im": 642,
      "ped": 643,
      "trap": 644,
      "pl": 645,
      "Ġwind": 646,
      "Ġdis": 647,
      "tuner": 648,
      "Ġnegate": 649,
      "cl": 650,
      "ake": 651,
      "fiend": 652,
      "ulum": 653,
      "pendulum": 654,
      "\".": 655,
      "Ġ8": 656,
      "it": 657,
      "os": 658,
      "Ġbec": 659,
      "Ġdraw": 660,
      "Ġ1500": 661,
      "Ġdi": 662,
      "machine": 663,
      "Ġstep": 664,
      "Ġplay": 665,
      "Ġnumber": 666,
      "Ġactivated": 667,
      "ower": 668,
      "Ġritual": 669,
      "spe": 670,
      "ip": 671,
      "Ġtheir": 672,
      "Ġwas": 673,
      "Ġr": 674,
      "Ġname": 675,
      "Ġdiscard": 676,
      "Ġret": 677,
      "caster": 678,
      "Ġreturn": 679,
      "ble": 680,
      "ore": 681,
      "400": 682,
      "Ġbut": 683,
      "Ġ+": 684,
      "ol": 685,
      "il": 686,
      "us": 687,
      "Ġ1200": 688,
      "reat": 689,
      "Ġbanished": 690,
      "ero": 691,
      "Ġ800": 692,
      "Ġequipped": 693,
      "inal": 694,
      "Ġany": 695,
      "ord": 696,
      "Ġ6": 697,
      "Ġno": 698,
      "air": 699,
      "Ġbecom": 700,
      "Ġorig": 701,
      "dragon": 702,
      "ex": 703,
      "to": 704,
      "ounter": 705,
      "night": 706,
      "Ġoriginal": 707,
      "Ġplayer": 708,
      "Ġ1800": 709,
      "Ġlower": 710,
      "ation": 711,
      "Ġare": 712,
      "by": 713,
      "ither": 714,
      "ment": 715,
      "airy": 716,
      "ian": 717,
      "Ġfl": 718,
      "Ġv": 719,
      "be": 720,
      "Ġcounter": 721,
      "spell": 722,
      "Ġchan": 723,
      "yber": 724,
      "Ġplace": 725,
      "ph": 726,
      "ie": 727,
      "fter": 728,
      "Ġmore": 729,
      "ts": 730,
      "Ġrest": 731,
      "ffer": 732,
      "der": 733,
      ").": 734,
      "uff": 735,
      "Ġ300": 736,
      "\",": 737,
      "Ġup": 738,
      "Ġrank": 739,
      "oll": 740,
      "Ġdiffer": 741,
      "Ġattacks": 742,
      "Ġdecl": 743,
      "Ġdeclar": 744,
      "Ġmust": 745,
      "spellcaster": 746,
      "Ġ1600": 747,
      "Ġlp": 748,
      "def": 749,
      "Ġset": 750,
      "Ġnon": 751,
      "dow": 752,
      "Ġhigh": 753,
      "Ġpoin": 754,
      "Ġtuner": 755,
      "Ġhero": 756,
      "Ġ2500": 757,
      "Ġsame": 758,
      "Ġpendulum": 759,
      "beast": 760,
      "Ġthem": 761,
      "Ġinto": 762,
      "Ġpoints": 763,
      "900": 764,
      "ead": 765,
      "tach": 766,
      "Ġafter": 767,
      "Ġshuff": 768,
      "Ġdifferent": 769,
      "Ġ100": 770,
      "Ġdetach": 771,
      "Ġbl": 772,
      "from": 773,
      "Ġ200": 774,
      "100": 775,
      "Ġchange": 776,
      "ai": 777,
      "Ġdef": 778,
      "sol": 779,
      "fusion": 780,
      "ey": 781,
      "Ġwarrior": 782,
      "300": 783,
      "Ġquick": 784,
      "Ġtribut": 785,
      "Ġhave": 786,
      "Ġ3000": 787,
      "ry": 788,
      "Ġshuffle": 789,
      "ron": 790,
      "Ġhigher": 791,
      "down": 792,
      "ollow": 793,
      "Ġthan": 794,
      "Ġeither": 795,
      "Ġbecomes": 796,
      "Ġfollow": 797,
      "pi": 798,
      "ver": 799,
      "Ġactivation": 800,
      "agic": 801,
      "Ġfollowing": 802,
      "Ġleave": 803,
      "ould": 804,
      "wing": 805,
      "except": 806,
      "Ġtreat": 807,
      "fairy": 808,
      "omb": 809,
      "mo": 810,
      "sing": 811,
      "Ġused": 812,
      "Ġleaves": 813,
      "Ġwould": 814,
      "Ġbo": 815,
      "play": 816,
      "normal": 817,
      "yberse": 818,
      "sect": 819,
      "Ġcal": 820,
      "Ġusing": 821,
      "urr": 822,
      "Ġtake": 823,
      "Ġinst": 824,
      "700": 825,
      "Ġinstead": 826,
      "Ġresol": 827,
      "Ġknight": 828,
      "ombie": 829,
      "bl": 830,
      "ere": 831,
      "ang": 832,
      "link": 833,
      "mat": 834,
      "Ġtim": 835,
      "synchro": 836,
      "Ġresolve": 837,
      ".)": 838,
      "sy": 839,
      "Ġdir": 840,
      "Ġtop": 841,
      "Ġtreated": 842,
      "Ġpr": 843,
      "Ġdirect": 844,
      "Ġmaterials": 845,
      "ma": 846,
      "this": 847,
      "Ġ1400": 848,
      "lement": 849,
      "orld": 850,
      "ase": 851,
      "ist": 852,
      "ken": 853,
      "ell": 854,
      "Ġthese": 855,
      "under": 856,
      "ator": 857,
      "Ġsi": 858,
      "Ġnot": 859,
      "Ġflip": 860,
      "rock": 861,
      "ice": 862,
      "ok": 863,
      "wn": 864,
      "set": 865,
      "Ġstar": 866,
      "Ġ600": 867,
      "Ġhas": 868,
      "Ġ400": 869,
      "Ġ2400": 870,
      "wh": 871,
      "Ġ&": 872,
      "veal": 873,
      "Ġreveal": 874,
      "eyes": 875,
      "Ġmachine": 876,
      "Ġway": 877,
      "anc": 878,
      "Ġthose": 879,
      "Ġsel": 880,
      "Ġapp": 881,
      "Ġj": 882,
      "me": 883,
      "Ġtoken": 884,
      "Ġstand": 885,
      "lemental": 886,
      "Ġtime": 887,
      "Ġsw": 888,
      "Ġthey": 889,
      "dark": 890,
      "cul": 891,
      "od": 892,
      "ue": 893,
      "Ġcurr": 894,
      "Ġse": 895,
      "Ġcurrent": 896,
      "Ġty": 897,
      "Ġstandby": 898,
      "all": 899,
      "Ġ1700": 900,
      "Ġmagic": 901,
      "Ġselect": 902,
      "Ġ10": 903,
      "ia": 904,
      "Ġbattles": 905,
      "tor": 906,
      "em": 907,
      "Ġmake": 908,
      "ki": 909,
      "Ġcalcul": 910,
      "ho": 911,
      "sych": 912,
      "Ġcalculation": 913,
      "ier": 914,
      "xt": 915,
      "Ġwhose": 916,
      "Ġown": 917,
      "sychic": 918,
      "),": 919,
      "qua": 920,
      "Ġnext": 921,
      "Ġresolves": 922,
      "Ġdirectly": 923,
      "once": 924,
      "Ġlose": 925,
      "Ġ2800": 926,
      "Ġtype": 927,
      "Ġ2100": 928,
      "Ġpay": 929,
      "Ġactivates": 930,
      "av": 931,
      "tile": 932,
      "ap": 933,
      "ear": 934,
      "Ġking": 935,
      "Ġim": 936,
      "Ġman": 937,
      "sp": 938,
      "50": 939,
      "oul": 940,
      "Ġgo": 941,
      "tal": 942,
      "aur": 943,
      "atin": 944,
      "Ġpos": 945,
      "winged": 946,
      "Ġhal": 947,
      "Ġless": 948,
      "the": 949,
      "atinum": 950,
      "Ġremo": 951,
      "Ġplatinum": 952,
      "Ġnegated": 953,
      "vol": 954,
      "Ġattribute": 955,
      "ne": 956,
      "ptile": 957,
      "Ġph": 958,
      "Ġdestroys": 959,
      "Ġtributing": 960,
      "ife": 961,
      "sh": 962,
      "Ġsp": 963,
      "Ġ1900": 964,
      "Ġworld": 965,
      "ik": 966,
      "ud": 967,
      "cre": 968,
      "Ġtargeted": 969,
      "Ġsk": 970,
      "ze": 971,
      "Ġdeclares": 972,
      "Ġpris": 973,
      "form": 974,
      "Ġsam": 975,
      "Ġfiend": 976,
      "med": 977,
      "Ġfir": 978,
      "Ġnames": 979,
      "Ġra": 980,
      "Ġ2200": 981,
      "plant": 982,
      "fer": 983,
      "bo": 984,
      "crease": 985,
      "Ġser": 986,
      "Ġlife": 987,
      "man": 988,
      "Ġfirst": 989,
      "cyberse": 990,
      "est": 991,
      "ror": 992,
      "Ġsamur": 993,
      "other": 994,
      "\";": 995,
      "Ġlevels": 996,
      "Ġsamurai": 997,
      "Ġapply": 998,
      "ler": 999,
      "mor": 1000,
      "Ġside": 1001,
      "Ġen": 1002,
      "act": 1003,
      "Ġbecome": 1004,
      "ill": 1005,
      "Ġ1300": 1006,
      "Ġ700": 1007,
      "Ġsc": 1008,
      "no": 1009,
      "Ġatt": 1010,
      "Ġwing": 1011,
      "ash": 1012,
      "Ġcha": 1013,
      "level": 1014,
      "Ġplant": 1015,
      "red": 1016,
      "atk": 1017,
      "osaur": 1018,
      "Ġcurrently": 1019,
      "Ġx": 1020,
      "Ġtargets": 1021,
      "ely": 1022,
      "te": 1023,
      "ven": 1024,
      "Ġqu": 1025,
      "Ġinsect": 1026,
      "Ġme": 1027,
      "elemental": 1028,
      "go": 1029,
      "matic": 1030,
      "aqua": 1031,
      "Ġmonstersonce": 1032,
      "Ġprismatic": 1033,
      "ient": 1034,
      "tions": 1035,
      "Ġanother": 1036,
      "ess": 1037,
      "Ġtributed": 1038,
      "Ġboth": 1039,
      "Ġ2300": 1040,
      "Ġmonstersif": 1041,
      "Ġmagician": 1042,
      "byss": 1043,
      "mer": 1044,
      "Ġattach": 1045,
      "insect": 1046,
      "Ġsword": 1047,
      "zombie": 1048,
      "inosaur": 1049,
      "Ġ2600": 1050,
      "Ġmany": 1051,
      "ving": 1052,
      "Ġ9": 1053,
      "Ġro": 1054,
      "itch": 1055,
      "Ġmo": 1056,
      "Ġzombie": 1057,
      "pirit": 1058,
      "when": 1059,
      "ade": 1060,
      "Ġspells": 1061,
      "adi": 1062,
      "ryst": 1063,
      "Ġthere": 1064,
      "Ġtotal": 1065,
      "rick": 1066,
      "orn": 1067,
      "Ġincrease": 1068,
      "uc": 1069,
      "Ġspellcaster": 1070,
      "ses": 1071,
      "her": 1072,
      "Ġowner": 1073,
      "Ġcyberse": 1074,
      "ick": 1075,
      "Ġ900": 1076,
      "yr": 1077,
      "den": 1078,
      "Ġfairy": 1079,
      "Ġdeclare": 1080,
      "Ġso": 1081,
      "iz": 1082,
      "less": 1083,
      "must": 1084,
      "yro": 1085,
      "ate": 1086,
      "ht": 1087,
      "Ġblack": 1088,
      "ab": 1089,
      "vil": 1090,
      "ffected": 1091,
      "Ġphant": 1092,
      "ved": 1093,
      "Ġcho": 1094,
      "au": 1095,
      "ub": 1096,
      "ott": 1097,
      "uri": 1098,
      "affected": 1099,
      "Ġmen": 1100,
      "Ġcom": 1101,
      "iat": 1102,
      "knight": 1103,
      "sw": 1104,
      "ale": 1105,
      "fire": 1106,
      "he": 1107,
      "Ġincl": 1108,
      "Ġlo": 1109,
      "ottom": 1110,
      "ded": 1111,
      "Ġad": 1112,
      "Ġcounters": 1113,
      "light": 1114,
      "star": 1115,
      "ladi": 1116,
      "ond": 1117,
      "Ġsoul": 1118,
      "Ġremove": 1119,
      "out": 1120,
      "rik": 1121,
      "uding": 1122,
      "ladiator": 1123,
      "age": 1124,
      "psychic": 1125,
      "ouble": 1126,
      "Ġbottom": 1127,
      "Ġcl": 1128,
      "cess": 1129,
      "Ġ1100": 1130,
      "mediat": 1131,
      "mediately": 1132,
      ";âĹı": 1133,
      "Ġunaffected": 1134,
      "apal": 1135,
      "rac": 1136,
      "Ġattacking": 1137,
      "formapal": 1138,
      "sa": 1139,
      "Ġtak": 1140,
      "Ġinflicts": 1141,
      "Ġred": 1142,
      "Ġwinged": 1143,
      "Ġneither": 1144,
      "flip": 1145,
      "Ġcond": 1146,
      "Ġimmediately": 1147,
      "Ġspirit": 1148,
      "Ġthunder": 1149,
      "Ġsummons": 1150,
      "roll": 1151,
      "ound": 1152,
      "ure": 1153,
      "Ġtw": 1154,
      "ina": 1155,
      "Ġincluding": 1156,
      "uard": 1157,
      "can": 1158,
      "pent": 1159,
      ".\"": 1160,
      "Ġloses": 1161,
      "ious": 1162,
      "ull": 1163,
      "ined": 1164,
      "ala": 1165,
      "alam": 1166,
      "Ġdouble": 1167,
      "Ġone": 1168,
      "sible": 1169,
      "Ġserpent": 1170,
      "gen": 1171,
      "Ġy": 1172,
      "ca": 1173,
      "og": 1174,
      "Ġrock": 1175,
      "iny": 1176,
      "Ġpossible": 1177,
      "lord": 1178,
      "Ġinvol": 1179,
      "black": 1180,
      "ary": 1181,
      "reptile": 1182,
      "for": 1183,
      "Ġzones": 1184,
      "ni": 1185,
      "Ġlord": 1186,
      "Ġinvolving": 1187,
      "rystal": 1188,
      "Ġphantom": 1189,
      "Ġstart": 1190,
      "fish": 1191,
      "dest": 1192,
      "incess": 1193,
      "Ġmonstersyou": 1194,
      "inj": 1195,
      "entur": 1196,
      "Ġwhite": 1197,
      "ence": 1198,
      "Ġhe": 1199,
      "Ġmir": 1200,
      "mar": 1201,
      "ite": 1202,
      "ms": 1203,
      "Ġgear": 1204,
      "thunder": 1205,
      "ady": 1206,
      "host": 1207,
      "cavat": 1208,
      "een": 1209,
      "tron": 1210,
      "Ġleg": 1211,
      "Ġexcavat": 1212,
      "Ġattacked": 1213,
      "raptor": 1214,
      "Ġhalf": 1215,
      "angreat": 1216,
      "alamangreat": 1217,
      "wer": 1218,
      "tic": 1219,
      "az": 1220,
      "co": 1221,
      "ug": 1222,
      "Ġpsychic": 1223,
      "Ġchain": 1224,
      "way": 1225,
      "number": 1226,
      "Ġarch": 1227,
      "jin": 1228,
      "my": 1229,
      "sk": 1230,
      "ise": 1231,
      "Ġabyss": 1232,
      "super": 1233,
      "ancient": 1234,
      "yrm": 1235,
      "Ġgen": 1236,
      "arrier": 1237,
      "Ġtakes": 1238,
      "cing": 1239,
      "Ġstrik": 1240,
      "right": 1241,
      "val": 1242,
      "Ġ?": 1243,
      "alaxy": 1244,
      "ling": 1245,
      "pyro": 1246,
      "Ġfish": 1247,
      "magic": 1248,
      "ance": 1249,
      "Ġpri": 1250,
      "Ġpier": 1251,
      "gladiator": 1252,
      "roid": 1253,
      "Ġsends": 1254,
      "Ġsky": 1255,
      "ause": 1256,
      "Ġpiercing": 1257,
      "avy": 1258,
      "earth": 1259,
      "li": 1260,
      "Ġbanishing": 1261,
      "Ġbecause": 1262,
      "Ġey": 1263,
      "Ġpro": 1264,
      "Ġsecond": 1265,
      "Ġposses": 1266,
      "ke": 1267,
      "one": 1268,
      "ream": 1269,
      "andom": 1270,
      "Ġcol": 1271,
      "Ġtokens": 1272,
      "Ġsea": 1273,
      "Ġmentions": 1274,
      "era": 1275,
      "idraptor": 1276,
      "Ġrandom": 1277,
      "Ġelemental": 1278,
      "noble": 1279,
      "Ġchoose": 1280,
      "Ġmirror": 1281,
      "arch": 1282,
      "Ġexact": 1283,
      "world": 1284,
      "aw": 1285,
      "Ġflame": 1286,
      "Ġflipped": 1287,
      "Ġexactly": 1288,
      "able": 1289,
      "ful": 1290,
      "Ġbarrier": 1291,
      "Ġdu": 1292,
      "Ġcomb": 1293,
      "ini": 1294,
      "Ġreptile": 1295,
      "ko": 1296,
      "Ġpower": 1297,
      "during": 1298,
      "Ġig": 1299,
      "gh": 1300,
      "etal": 1301,
      "ldier": 1302,
      "ged": 1303,
      "ju": 1304,
      "dinosaur": 1305,
      "ger": 1306,
      "Ġsha": 1307,
      "Ġguard": 1308,
      "Ġsummoning": 1309,
      "ail": 1310,
      "Ġmag": 1311,
      "ider": 1312,
      "Ġsoldier": 1313,
      "lt": 1314,
      "Ġdeclared": 1315,
      "cyber": 1316,
      "ways": 1317,
      "Ġpossession": 1318,
      "13": 1319,
      "ket": 1320,
      "Ġmy": 1321,
      "Ġalways": 1322,
      "che": 1323,
      "inja": 1324,
      "mag": 1325,
      "even": 1326,
      "wind": 1327,
      "arp": 1328,
      "Ġlady": 1329,
      "ka": 1330,
      "pre": 1331,
      "pet": 1332,
      "Ġem": 1333,
      "oton": 1334,
      "Ġ4000": 1335,
      "Ġforce": 1336,
      "heavy": 1337,
      "Ġwere": 1338,
      "umn": 1339,
      "zon": 1340,
      "ech": 1341,
      "Ġgold": 1342,
      "salamangreat": 1343,
      "Ġhi": 1344,
      "ult": 1345,
      "Ġcombined": 1346,
      "ile": 1347,
      "tw": 1348,
      "gem": 1349,
      "ical": 1350,
      "Ġcolumn": 1351,
      "ong": 1352,
      "Ġice": 1353,
      "ains": 1354,
      "unk": 1355,
      "Ġsix": 1356,
      "ition": 1357,
      "roz": 1358,
      "uto": 1359,
      "Ġswords": 1360,
      "batt": 1361,
      "yl": 1362,
      "Ġ12": 1363,
      "Ġdinosaur": 1364,
      "Ġgr": 1365,
      "read": 1366,
      "Ġmaster": 1367,
      "\":": 1368,
      "po": 1369,
      "rans": 1370,
      "Ġ2700": 1371,
      "Ġsending": 1372,
      "Ġam": 1373,
      "Ġpat": 1374,
      "Ġarchfiend": 1375,
      "ys": 1376,
      "arm": 1377,
      "les": 1378,
      "Ġmonsterswhen": 1379,
      "Ġresu": 1380,
      "traps": 1381,
      "osen": 1382,
      "bu": 1383,
      "hero": 1384,
      "va": 1385,
      "Ġgi": 1386,
      "Ġang": 1387,
      "Ġlook": 1388,
      "amazon": 1389,
      "Ġwithout": 1390,
      "ancer": 1391,
      "eat": 1392,
      "rickstar": 1393,
      "blackwing": 1394,
      "ring": 1395,
      "oring": 1396,
      "Ġchanged": 1397,
      "Ġign": 1398,
      "itions": 1399,
      "infer": 1400,
      "¿½": 1401,
      "ï¿½": 1402,
      "Ġel": 1403,
      "Ġabo": 1404,
      "Ġconditions": 1405,
      "Ġeye": 1406,
      "Ġabove": 1407,
      "cer": 1408,
      "Ġform": 1409,
      "ragun": 1410,
      "amazoness": 1411,
      "kroz": 1412,
      "witch": 1413,
      "lem": 1414,
      "sea": 1415,
      "sed": 1416,
      "raidraptor": 1417,
      "orph": 1418,
      "Ġmar": 1419,
      "Ġrem": 1420,
      "ird": 1421,
      "Ġko": 1422,
      "fur": 1423,
      "Ġbase": 1424,
      "Ġhis": 1425,
      "Ġma": 1426,
      "uppet": 1427,
      "performapal": 1428,
      "Ġignoring": 1429,
      "evil": 1430,
      "ock": 1431,
      "Ġdoes": 1432,
      "acy": 1433,
      "Ġevil": 1434,
      "Ġher": 1435,
      "Ġunless": 1436,
      "allen": 1437,
      "Ġresult": 1438,
      "ragunity": 1439,
      "cha": 1440,
      "eper": 1441,
      "target": 1442,
      "Ġbattled": 1443,
      "hostrick": 1444,
      "ruc": 1445,
      "monster": 1446,
      "Ġag": 1447,
      "ica": 1448,
      "galaxy": 1449,
      "Ġover": 1450,
      "Ġorder": 1451,
      "Ġaddition": 1452,
      "Ġselected": 1453,
      "ix": 1454,
      "pha": 1455,
      "vine": 1456,
      "urning": 1457,
      "pia": 1458,
      "blue": 1459,
      "uria": 1460,
      "+:": 1461,
      "cient": 1462,
      "din": 1463,
      "pri": 1464,
      "wyrm": 1465,
      "zo": 1466,
      "timat": 1467,
      "Ġgem": 1468,
      "Ġancient": 1469,
      "iru": 1470,
      "Ġneos": 1471,
      "Ġarmor": 1472,
      "Ġduel": 1473,
      "abyss": 1474,
      "Ġcreat": 1475,
      "aly": 1476,
      "Ġpar": 1477,
      "edroid": 1478,
      "six": 1479,
      "ddoll": 1480,
      "aga": 1481,
      "destiny": 1482,
      "Ġaqua": 1483,
      "do": 1484,
      "Ġpuppet": 1485,
      "geist": 1486,
      "eather": 1487,
      "your": 1488,
      "Ġtraps": 1489,
      "Ġchaos": 1490,
      "Ġlegacy": 1491,
      "con": 1492,
      "sha": 1493,
      "Ġroll": 1494,
      "Ġtr": 1495,
      "Ġho": 1496,
      "irl": 1497,
      "Ġmeiru": 1498,
      "timate": 1499,
      "ouki": 1500,
      "Ġdrac": 1501,
      "amp": 1502,
      "Ġforest": 1503,
      "Ġshi": 1504,
      "Ġgolem": 1505,
      "Ġremoved": 1506,
      "bound": 1507,
      "Ġsl": 1508,
      "Ġperformapal": 1509,
      "tergeist": 1510,
      "adol": 1511,
      "Ġcall": 1512,
      "sworn": 1513,
      "iss": 1514,
      "blin": 1515,
      "aval": 1516,
      "adolche": 1517,
      "ald": 1518,
      "Ġpre": 1519,
      "Ġsun": 1520,
      "Ġinfer": 1521,
      "ich": 1522,
      "Ġchar": 1523,
      "anger": 1524,
      "maid": 1525,
      "sault": 1526,
      "Ġstriker": 1527,
      "Ġangel": 1528,
      "Ġbased": 1529,
      "Ġsn": 1530,
      "Ġhad": 1531,
      "mek": 1532,
      "Ġexcavate": 1533,
      "arpie": 1534,
      "cra": 1535,
      "rus": 1536,
      "Ġcontroller": 1537,
      "Ġphases": 1538,
      "ker": 1539,
      "lant": 1540,
      "vi": 1541,
      "Ġcentur": 1542,
      "Ġgl": 1543,
      "Ġfist": 1544,
      "igni": 1545,
      "Ġarms": 1546,
      "Ġbox": 1547,
      "tri": 1548,
      "arc": 1549,
      "Ġcrystal": 1550,
      "Ġplayers": 1551,
      "Ġknights": 1552,
      "Ġhalved": 1553,
      "ization": 1554,
      "abled": 1555,
      "iac": 1556,
      "led": 1557,
      "Ġqueen": 1558,
      "force": 1559,
      "crystal": 1560,
      "Ġtri": 1561,
      "Ġcyber": 1562,
      "Ġsil": 1563,
      "echa": 1564,
      "Ġ2900": 1565,
      "Ġdiscarded": 1566,
      "Ġblue": 1567,
      "neo": 1568,
      "ransfer": 1569,
      "fo": 1570,
      "ple": 1571,
      "urib": 1572,
      "reak": 1573,
      "sil": 1574,
      "ves": 1575,
      "Ġvo": 1576,
      "Ġwarriors": 1577,
      "ignister": 1578,
      "van": 1579,
      "Ġpe": 1580,
      "Ġresp": 1581,
      "arknight": 1582,
      "ellarknight": 1583,
      "Ġskull": 1584,
      "morph": 1585,
      "Ġattached": 1586,
      "ies": 1587,
      "ius": 1588,
      "min": 1589,
      "trickstar": 1590,
      "onse": 1591,
      "alight": 1592,
      "Ġill": 1593,
      "Ġreb": 1594,
      "unalight": 1595,
      "ellar": 1596,
      "Ġways": 1597,
      "Ġconduc": 1598,
      "Ġtwice": 1599,
      "Ġresponse": 1600,
      "na": 1601,
      "are": 1602,
      "ension": 1603,
      "ino": 1604,
      "Ġavat": 1605,
      "une": 1606,
      "while": 1607,
      "ashi": 1608,
      "Ġswordsman": 1609,
      "Ġavatar": 1610,
      "non": 1611,
      "uster": 1612,
      "Ġcore": 1613,
      "aturia": 1614,
      "rain": 1615,
      "lymer": 1616,
      "imm": 1617,
      "special": 1618,
      "pire": 1619,
      "Ġquar": 1620,
      "tronic": 1621,
      "ruction": 1622,
      "vis": 1623,
      "Ġhead": 1624,
      "Ġstill": 1625,
      "book": 1626,
      "Ġshadow": 1627,
      "lymerization": 1628,
      "46": 1629,
      "ers": 1630,
      "Ġli": 1631,
      "Ġlv": 1632,
      "Ġlist": 1633,
      "Ġcoin": 1634,
      "Ġste": 1635,
      "Ġhire": 1636,
      "son": 1637,
      "ari": 1638,
      "Ġcro": 1639,
      "ery": 1640,
      "stellar": 1641,
      "Ġwho": 1642,
      "idden": 1643,
      "Ġadded": 1644,
      "immick": 1645,
      "gra": 1646,
      "lin": 1647,
      "nity": 1648,
      "ating": 1649,
      "elod": 1650,
      "ress": 1651,
      "quish": 1652,
      "endread": 1653,
      "irt": 1654,
      "own": 1655,
      "Ġenti": 1656,
      "marincess": 1657,
      "ness": 1658,
      "scue": 1659,
      "Ġrevealed": 1660,
      "Ġmagical": 1661,
      "Ġimp": 1662,
      "Ġquant": 1663,
      "saber": 1664,
      "preme": 1665,
      "!\"": 1666,
      "uce": 1667,
      "Ġcat": 1668,
      "omaly": 1669,
      "ount": 1670,
      "ronomaly": 1671,
      "superheavy": 1672,
      "Ġpatroll": 1673,
      "crafter": 1674,
      "oh": 1675,
      "wise": 1676,
      "acian": 1677,
      "Ġgre": 1678,
      "Ġhy": 1679,
      "Ġmetal": 1680,
      "ynchron": 1681,
      "rytron": 1682,
      "eart": 1683,
      "Ġmonsterst": 1684,
      "Ġog": 1685,
      "Ġeven": 1686,
      "ament": 1687,
      "ampire": 1688,
      "Ġnight": 1689,
      "Ġotherwise": 1690,
      "Ġpred": 1691,
      "max": 1692,
      "utopia": 1693,
      "polymerization": 1694,
      "Ġconduct": 1695,
      ");": 1696,
      "ghostrick": 1697,
      "onic": 1698,
      "Ġhor": 1699,
      "uler": 1700,
      "ids": 1701,
      "Ġdraws": 1702,
      "Ġrec": 1703,
      "mement": 1704,
      "spacian": 1705,
      "nekroz": 1706,
      "ubic": 1707,
      "Ġcentury": 1708,
      "Ġquarter": 1709,
      "elodious": 1710,
      "roo": 1711,
      "almon": 1712,
      "Ġtoss": 1713,
      "Ġdestiny": 1714,
      "Ġactor": 1715,
      "Ġshark": 1716,
      "speedroid": 1717,
      "aia": 1718,
      "Ġrose": 1719,
      "Ġexcavated": 1720,
      "Ġillusion": 1721,
      "cle": 1722,
      "gouki": 1723,
      "his": 1724,
      "mal": 1725,
      "sm": 1726,
      "tr": 1727,
      "altergeist": 1728,
      "Ġart": 1729,
      "Ġreturned": 1730,
      "olden": 1731,
      "matik": 1732,
      "eraider": 1733,
      "Ġguardian": 1734,
      "add": 1735,
      "but": 1736,
      "ui": 1737,
      "Ġter": 1738,
      "art": 1739,
      "ans": 1740,
      "our": 1741,
      "Ġcardian": 1742,
      "Ġab": 1743,
      "utant": 1744,
      "ayak": 1745,
      "Ġunion": 1746,
      "mare": 1747,
      "keeper": 1748,
      "Ġformation": 1749,
      "ayakashi": 1750,
      "app": 1751,
      "dragunity": 1752,
      "fin": 1753,
      "âĺ": 1754,
      "Ġsanc": 1755,
      "Ġcannon": 1756,
      "rest": 1757,
      "ordic": 1758,
      "mail": 1759,
      "istus": 1760,
      "Ġenem": 1761,
      "sky": 1762,
      "gu": 1763,
      "kids": 1764,
      "ecro": 1765,
      "Ġninja": 1766,
      "Ġmonstersthis": 1767,
      "fic": 1768,
      "ga": 1769,
      "ky": 1770,
      "king": 1771,
      "ara": 1772,
      "Ġmonstermust": 1773,
      "scrap": 1774,
      "Ġmus": 1775,
      "Ġdestruction": 1776,
      "Ġbanishment": 1777,
      "Ġfort": 1778,
      "imension": 1779,
      "its": 1780,
      "Ġval": 1781,
      "ief": 1782,
      "Ġdifference": 1783,
      "rystron": 1784,
      "Ġkoa": 1785,
      "shaddoll": 1786,
      ")\"": 1787,
      "dream": 1788,
      "madolche": 1789,
      "ath": 1790,
      "Ġbur": 1791,
      "Ġdri": 1792,
      "urs": 1793,
      "ute": 1794,
      "Ġlong": 1795,
      "iron": 1796,
      "Ġhalve": 1797,
      "Ġpride": 1798,
      "osi": 1799,
      "rel": 1800,
      "Ġmonsterif": 1801,
      "Ġgirl": 1802,
      "Ġmas": 1803,
      "ader": 1804,
      "Ġruler": 1805,
      "Ġswitch": 1806,
      "swarm": 1807,
      "aph": 1808,
      "ution": 1809,
      "Ġsar": 1810,
      "Ġwi": 1811,
      "Ġweather": 1812,
      "ort": 1813,
      "Ġleast": 1814,
      "Ġzing": 1815,
      "Ġphoton": 1816,
      "rightfur": 1817,
      "Ġentire": 1818,
      "850": 1819,
      "harpie": 1820,
      "nal": 1821,
      "vant": 1822,
      "rie": 1823,
      "Ġwitch": 1824,
      "thys": 1825,
      "terror": 1826,
      "ynth": 1827,
      "Ġultimate": 1828,
      "usto": 1829,
      "Ġdie": 1830,
      "very": 1831,
      "shi": 1832,
      "fro": 1833,
      "fallen": 1834,
      "lunalight": 1835,
      "odd": 1836,
      "Ġdream": 1837,
      "Ġgate": 1838,
      "Ġla": 1839,
      "achina": 1840,
      "ishki": 1841,
      "Ġalb": 1842,
      "esis": 1843,
      "Ġdog": 1844,
      "ship": 1845,
      "Ġvoice": 1846,
      "Ġsanct": 1847,
      "metal": 1848,
      "ninja": 1849,
      "tle": 1850,
      "Ġburning": 1851,
      "Ġtoon": 1852,
      "Ġ3500": 1853,
      "ayer": 1854,
      "flower": 1855,
      "toon": 1856,
      "Ġprincess": 1857,
      "Ġappro": 1858,
      "Ġjust": 1859,
      "Ġservant": 1860,
      "Ġblackwing": 1861,
      "fach": 1862,
      "net": 1863,
      "water": 1864,
      "Ġri": 1865,
      "Ġcur": 1866,
      "ardust": 1867,
      "rix": 1868,
      "res": 1869,
      "Ġtargeting": 1870,
      "gogo": 1871,
      "Ġchoice": 1872,
      "bujin": 1873,
      "Ġboxer": 1874,
      "arctic": 1875,
      "almonica": 1876,
      "ursarctic": 1877,
      "fachord": 1878,
      "cust": 1879,
      "ied": 1880,
      "kket": 1881,
      "vo": 1882,
      "Ġtal": 1883,
      "enix": 1884,
      "Ġ1850": 1885,
      "Ġwyrm": 1886,
      "ree": 1887,
      "Ġmet": 1888,
      "itsu": 1889,
      "ush": 1890,
      "osenju": 1891,
      "Ġgemini": 1892,
      "counter": 1893,
      "ning": 1894,
      "vendread": 1895,
      "arak": 1896,
      "des": 1897,
      "ining": 1898,
      "Ġbird": 1899,
      "Ġdoom": 1900,
      "Ġdivine": 1901,
      "photon": 1902,
      "genex": 1903,
      "priate": 1904,
      "osister": 1905,
      "Ġappropriate": 1906,
      "bot": 1907,
      "uary": 1908,
      "ecl": 1909,
      "ection": 1910,
      "Ġmer": 1911,
      "Ġstorm": 1912,
      "ass": 1913,
      "agaga": 1914,
      "Ġnoble": 1915,
      "zek": 1916,
      "noid": 1917,
      "yral": 1918,
      "lightsworn": 1919,
      "Ġreduce": 1920,
      "witchcrafter": 1921,
      "aments": 1922,
      "matika": 1923,
      "Ġmusket": 1924,
      "Ġsanctuary": 1925,
      "dog": 1926,
      "ele": 1927,
      "ira": 1928,
      "pred": 1929,
      "ten": 1930,
      "oud": 1931,
      "ley": 1932,
      "ector": 1933,
      "romancer": 1934,
      "Ġlast": 1935,
      "Ġunder": 1936,
      "uffal": 1937,
      "aiju": 1938,
      "Ġmention": 1939,
      "Ġremains": 1940,
      "rooper": 1941,
      "arakuri": 1942,
      "aplant": 1943,
      "annot": 1944,
      "urug": 1945,
      "ceed": 1946,
      "ranui": 1947,
      "Ġmonstersduring": 1948,
      "Ġash": 1949,
      "peror": 1950,
      "phant": 1951,
      "earthbound": 1952,
      "ringans": 1953,
      "dinom": 1954,
      "uriboh": 1955,
      "urugi": 1956,
      "23": 1957,
      "drac": 1958,
      "gains": 1959,
      "laments": 1960,
      "mecha": 1961,
      "spirit": 1962,
      "Ġsa": 1963,
      "Ġmonstersc": 1964,
      "Ġ11": 1965,
      "Ġgalaxy": 1966,
      "rescue": 1967,
      "randed": 1968,
      "Ġdarkness": 1969,
      "Ġry": 1970,
      "spellbook": 1971,
      "urrely": 1972,
      "angle": 1973,
      "earlaments": 1974,
      "Ġmyst": 1975,
      "unkan": 1976,
      "irtual": 1977,
      "itsurugi": 1978,
      "zektor": 1979,
      "bidden": 1980,
      "gy": 1981,
      "gal": 1982,
      "lo": 1983,
      "prank": 1984,
      "ened": 1985,
      "Ġfur": 1986,
      "Ġback": 1987,
      "Ġpyro": 1988,
      "ander": 1989,
      "sided": 1990,
      "Ġequals": 1991,
      "Ġblade": 1992,
      "Ġtimes": 1993,
      "odiac": 1994,
      "Ġemperor": 1995,
      "Ġgrand": 1996,
      "Ġgiant": 1997,
      "ï¿½ï¿½": 1998,
      "chained": 1999,
      "Ġalbaz": 2000,
      "jama": 2001,
      "soul": 2002,
      "zmo": 2003,
      "Ġbu": 2004,
      "Ġdimension": 2005,
      "Ġsub": 2006,
      "ory": 2007,
      "endary": 2008,
      "ome": 2009,
      "ikey": 2010,
      "magical": 2011,
      "foes": 2012,
      "di": 2013,
      "danger": 2014,
      "gimmick": 2015,
      "Ġtem": 2016,
      "Ġodd": 2017,
      "rokket": 2018,
      "time": 2019,
      "Ġbar": 2020,
      "Ġdrag": 2021,
      "Ġdepend": 2022,
      "Ġwar": 2023,
      "org": 2024,
      "Ġmu": 2025,
      "Ġgys": 2026,
      "Ġrequi": 2027,
      "owrest": 2028,
      "Ġrating": 2029,
      "formage": 2030,
      "alefic": 2031,
      "destroy": 2032,
      "Ġprot": 2033,
      "Ġburst": 2034,
      "Ġmonsterscannot": 2035,
      "owrestler": 2036,
      "bromancer": 2037,
      "fore": 2038,
      "ren": 2039,
      "transfer": 2040,
      "Ġace": 2041,
      "arecl": 2042,
      "anko": 2043,
      "rother": 2044,
      "Ġevery": 2045,
      "Ġbig": 2046,
      "Ġgladiator": 2047,
      "Ġbetw": 2048,
      "Ġstarlight": 2049,
      "Ġtypes": 2050,
      "ikanko": 2051,
      "Ġmoon": 2052,
      "abr": 2053,
      "areclaw": 2054,
      "Ġbetween": 2055,
      "dual": 2056,
      "drytron": 2057,
      "fabled": 2058,
      "ght": 2059,
      "Ġca": 2060,
      "Ġthief": 2061,
      "acred": 2062,
      "alice": 2063,
      "sun": 2064,
      "Ġmonstersmust": 2065,
      "Ġreson": 2066,
      "asp": 2067,
      "Ġscale": 2068,
      "ashti": 2069,
      "Ġtwin": 2070,
      "myutant": 2071,
      "morphtronic": 2072,
      "fra": 2073,
      "ien": 2074,
      "lan": 2075,
      "mech": 2076,
      "ym": 2077,
      "Ġcor": 2078,
      "Ġsynchron": 2079,
      "Ġpho": 2080,
      "edge": 2081,
      "Ġmist": 2082,
      "quence": 2083,
      "Ġbefore": 2084,
      "iger": 2085,
      "Ġexceed": 2086,
      "assault": 2087,
      "adv": 2088,
      "Ġshuffling": 2089,
      "vern": 2090,
      "Ġsequence": 2091,
      "Ġattributes": 2092,
      "Ġspo": 2093,
      "gold": 2094,
      "Ġdraco": 2095,
      "memento": 2096,
      "crystron": 2097,
      "gus": 2098,
      "ium": 2099,
      "jade": 2100,
      "Ġmonarch": 2101,
      "Ġwill": 2102,
      "Ġtor": 2103,
      "Ġghost": 2104,
      "Ġhun": 2105,
      "Ġinv": 2106,
      "aylant": 2107,
      "adia": 2108,
      "ime": 2109,
      "plunder": 2110,
      "Ġgoblin": 2111,
      "Ġrow": 2112,
      "visas": 2113,
      "Ġlisted": 2114,
      "Ġenemies": 2115,
      "kyrie": 2116,
      "Ġdepending": 2117,
      "aylantz": 2118,
      "Ġsol": 2119,
      "Ġgolden": 2120,
      "chronomaly": 2121,
      "ummy": 2122,
      "adget": 2123,
      "Ġze": 2124,
      "rigade": 2125,
      "rawler": 2126,
      "dragonmaid": 2127,
      "mortal": 2128,
      "mermail": 2129,
      "sword": 2130,
      "rusadia": 2131,
      "ashtira": 2132,
      "Ġphoenix": 2133,
      "la": 2134,
      "ser": 2135,
      "ted": 2136,
      "vent": 2137,
      "war": 2138,
      "Ġer": 2139,
      "Ġtur": 2140,
      "mong": 2141,
      "atic": 2142,
      "ison": 2143,
      "Ġba": 2144,
      "Ġmul": 2145,
      "Ġcontrolled": 2146,
      "adic": 2147,
      "Ġtributes": 2148,
      "ils": 2149,
      "Ġvol": 2150,
      "Ġblast": 2151,
      "urrac": 2152,
      "mage": 2153,
      "orphia": 2154,
      "constellar": 2155,
      "abrynth": 2156,
      "cter": 2157,
      "fr": 2158,
      "frightfur": 2159,
      "lu": 2160,
      "Ġ@": 2161,
      "ste": 2162,
      "unick": 2163,
      "therion": 2164,
      "Ġrel": 2165,
      "white": 2166,
      "Ġimmortal": 2167,
      "volution": 2168,
      "izard": 2169,
      "cannot": 2170,
      "Ġchooses": 2171,
      "twin": 2172,
      "gemini": 2173,
      "Ġherald": 2174,
      "Ġagent": 2175,
      "frost": 2176,
      ".ï¿½ï¿½": 2177,
      "10": 2178,
      "bit": 2179,
      "brigade": 2180,
      "hi": 2181,
      "lian": 2182,
      "master": 2183,
      "rack": 2184,
      "ract": 2185,
      "send": 2186,
      "yosenju": 2187,
      "Ġtied": 2188,
      "atch": 2189,
      "Ġdin": 2190,
      "Ġland": 2191,
      "ighoul": 2192,
      "chan": 2193,
      "union": 2194,
      "imighoul": 2195,
      "\".)": 2196,
      "exosister": 2197,
      "solfachord": 2198,
      "piritual": 2199,
      "Ġstarfrost": 2200,
      "Ġdoubled": 2201,
      "code": 2202,
      "vanquish": 2203,
      "liancer": 2204,
      ":âĹı": 2205,
      "centur": 2206,
      "jes": 2207,
      "met": 2208,
      "purrely": 2209,
      "Ġten": 2210,
      "Ġcri": 2211,
      "ouvel": 2212,
      "pecter": 2213,
      "ening": 2214,
      "inful": 2215,
      "Ġiron": 2216,
      "ura": 2217,
      "Ġtook": 2218,
      "Ġmorph": 2219,
      "Ġmayakashi": 2220,
      "Ġfigh": 2221,
      "Ġbeing": 2222,
      "Ġbattling": 2223,
      "Ġplac": 2224,
      "Ġarmed": 2225,
      "indangle": 2226,
      "Ġhighest": 2227,
      "linked": 2228,
      "hood": 2229,
      "Ġrain": 2230,
      "Ġphantas": 2231,
      "copha": 2232,
      "battle": 2233,
      "ylon": 2234,
      "Ġelect": 2235,
      "Ġshield": 2236,
      "Ġsnake": 2237,
      "Ġsarcopha": 2238,
      "rotherhood": 2239,
      "Ġspoils": 2240,
      "jespecter": 2241,
      "Ġsarcophagus": 2242,
      "cip": 2243,
      "equip": 2244,
      "gunkan": 2245,
      "machina": 2246,
      "nar": 2247,
      "ru": 2248,
      "Ġcity": 2249,
      "ato": 2250,
      "Ġbreak": 2251,
      "Ġda": 2252,
      "Ġamong": 2253,
      "Ġgod": 2254,
      "Ġmech": 2255,
      "Ġcontract": 2256,
      "Ġwhich": 2257,
      "Ġsuperheavy": 2258,
      "rite": 2259,
      "etrooper": 2260,
      "pengu": 2261,
      "ossil": 2262,
      "Ġreturns": 2263,
      "olf": 2264,
      "Ġven": 2265,
      "Ġboss": 2266,
      "spyral": 2267,
      "zeal": 2268,
      "goblin": 2269,
      "archfiend": 2270,
      "battlin": 2271,
      "infernoid": 2272,
      "Ġcreature": 2273,
      "bow": 2274,
      "don": 2275,
      "ft": 2276,
      "naturia": 2277,
      "Ġout": 2278,
      "Ġcubic": 2279,
      "Ġfe": 2280,
      "acle": 2281,
      "amina": 2282,
      "Ġworm": 2283,
      "Ġgar": 2284,
      "supreme": 2285,
      "Ġchosen": 2286,
      "Ġinflicted": 2287,
      "ryu": 2288,
      "springans": 2289,
      "Ġrandomly": 2290,
      "vaalmonica": 2291,
      "ouvelles": 2292,
      "..": 2293,
      "123": 2294,
      "break": 2295,
      "guard": 2296,
      "gagaga": 2297,
      "melodious": 2298,
      "nordic": 2299,
      "tellarknight": 2300,
      "tearlaments": 2301,
      "wasp": 2302,
      "Ġsalamangreat": 2303,
      "Ġsacred": 2304,
      "row": 2305,
      "Ġluster": 2306,
      "Ġ3200": 2307,
      "Ġ3300": 2308,
      "amaze": 2309,
      "umi": 2310,
      "Ġpositions": 2311,
      "ado": 2312,
      "fluffal": 2313,
      "ili": 2314,
      "Ġmove": 2315,
      "icked": 2316,
      "rikka": 2317,
      "cana": 2318,
      "mson": 2319,
      "maliss": 2320,
      "Ġwild": 2321,
      "penguin": 2322,
      "ae": 2323,
      "Ġcir": 2324,
      "ough": 2325,
      "Ġsm": 2326,
      "Ġsor": 2327,
      "Ġpa": 2328,
      "Ġwave": 2329,
      "Ġsuship": 2330,
      "ragnar": 2331,
      "Ġneph": 2332,
      "Ġraidraptor": 2333,
      "Ġmode": 2334,
      "injitsu": 2335,
      "ylph": 2336,
      "Ġogre": 2337,
      "true": 2338,
      "Ġmulti": 2339,
      "banish": 2340,
      "dge": 2341,
      "ee": 2342,
      "evol": 2343,
      "ton": 2344,
      "vampire": 2345,
      "virtual": 2346,
      "arn": 2347,
      "stardust": 2348,
      "sel": 2349,
      "elff": 2350,
      "Ġdecrease": 2351,
      "Ġspec": 2352,
      "Ġgard": 2353,
      "Ġheart": 2354,
      "umer": 2355,
      "unch": 2356,
      "Ġplan": 2357,
      "Ġzero": 2358,
      "phonic": 2359,
      "Ġshuffled": 2360,
      "Ġclaw": 2361,
      "canic": 2362,
      "fort": 2363,
      "Ġgener": 2364,
      "Ġgeneraider": 2365,
      "magician": 2366,
      "Ġagain": 2367,
      "zoodiac": 2368,
      "doadic": 2369,
      "Ġhole": 2370,
      "dogmatika": 2371,
      "change": 2372,
      "Ġfighter": 2373,
      "bell": 2374,
      "dle": 2375,
      "ption": 2376,
      "Ġtre": 2377,
      "Ġtiger": 2378,
      "stial": 2379,
      "amid": 2380,
      "Ġable": 2381,
      "Ġgig": 2382,
      "Ġgreat": 2383,
      "scareclaw": 2384,
      "subterror": 2385,
      "Ġnaturia": 2386,
      "Ġhands": 2387,
      "Ġassault": 2388,
      "Ġforbidden": 2389,
      "Ġunequip": 2390,
      "Ġke": 2391,
      "imera": 2392,
      "usylph": 2393,
      "moth": 2394,
      "Ġseal": 2395,
      "Ġspace": 2396,
      "Ġgenex": 2397,
      "kozmo": 2398,
      "magistus": 2399,
      "magikey": 2400,
      "aphys": 2401,
      "Ġnephthys": 2402,
      "ba": 2403,
      "br": 2404,
      "burning": 2405,
      "krawler": 2406,
      "Ġ#": 2407,
      "Ġtail": 2408,
      "Ġcy": 2409,
      "inzektor": 2410,
      "ric": 2411,
      "atter": 2412,
      "Ġdefen": 2413,
      "Ġbeen": 2414,
      "otail": 2415,
      "Ġrep": 2416,
      "Ġreal": 2417,
      "until": 2418,
      "unchained": 2419,
      "Ġstone": 2420,
      "Ġneo": 2421,
      "Ġnew": 2422,
      "Ġshow": 2423,
      "phin": 2424,
      "ieratic": 2425,
      "Ġskip": 2426,
      "Ġmek": 2427,
      "adium": 2428,
      "skbot": 2429,
      "Ġstrike": 2430,
      "libromancer": 2431,
      "dinowrestler": 2432,
      "smith": 2433,
      "Ġfortress": 2434,
      "Ġmentioned": 2435,
      "Ġashened": 2436,
      "aze": 2437,
      "gr": 2438,
      "layer": 2439,
      "malefic": 2440,
      "Ġsage": 2441,
      "Ġfo": 2442,
      "Ġfabled": 2443,
      "amer": 2444,
      "Ġasc": 2445,
      "Ġwall": 2446,
      "gear": 2447,
      "ign": 2448,
      "Ġpoison": 2449,
      "iral": 2450,
      "akening": 2451,
      "Ġchalice": 2452,
      "place": 2453,
      "ubel": 2454,
      "valkyrie": 2455,
      "Ġeyes": 2456,
      "meklord": 2457,
      "Ġreborn": 2458,
      "Ġcross": 2459,
      "âĺħ": 2460,
      "Ġtalker": 2461,
      "cy": 2462,
      "gusto": 2463,
      "gishki": 2464,
      "laval": 2465,
      "pos": 2466,
      "iser": 2467,
      "eler": 2468,
      "Ġdes": 2469,
      "ray": 2470,
      "Ġwicked": 2471,
      "Ġhar": 2472,
      "thical": 2473,
      "performage": 2474,
      "Ġblo": 2475,
      "darklord": 2476,
      "Ġlegendary": 2477,
      "Ġamount": 2478,
      "infernity": 2479,
      "Ġremain": 2480,
      "ampion": 2481,
      "Ġsilver": 2482,
      "eryman": 2483,
      "grave": 2484,
      "Ġjustice": 2485,
      "frame": 2486,
      "Ġplaced": 2487,
      "elffy": 2488,
      ").âĹı": 2489,
      "bird": 2490,
      "ci": 2491,
      "heart": 2492,
      "ps": 2493,
      "pic": 2494,
      "tindangle": 2495,
      "Ġtra": 2496,
      "armed": 2497,
      "Ġcar": 2498,
      "ination": 2499,
      "Ġfly": 2500,
      "rilu": 2501,
      "tif": 2502,
      "Ġdragunity": 2503,
      "Ġgaia": 2504,
      "lyrilu": 2505,
      "icious": 2506,
      "Ġally": 2507,
      "illen": 2508,
      "illusion": 2509,
      "Ġcomm": 2510,
      "Ġyang": 2511,
      "enturer": 2512,
      "Ġsteel": 2513,
      "Ġmask": 2514,
      "shiranui": 2515,
      "predaplant": 2516,
      "dinomorphia": 2517,
      "galith": 2518,
      "lyrilusc": 2519,
      "crusadia": 2520,
      "fly": 2521,
      "gaia": 2522,
      "head": 2523,
      "hmech": 2524,
      "kashtira": 2525,
      "ob": 2526,
      "ojama": 2527,
      "power": 2528,
      "ta": 2529,
      "yi": 2530,
      "yummy": 2531,
      "Ġve": 2532,
      "Ġtransfer": 2533,
      "Ġcra": 2534,
      "Ġcast": 2535,
      "Ġemer": 2536,
      "Ġdom": 2537,
      "Ġ\"@": 2538,
      "Ġwin": 2539,
      "Ġsupreme": 2540,
      "orcust": 2541,
      "Ġinfin": 2542,
      "Ġmind": 2543,
      "Ġnecro": 2544,
      "Ġmonstersgains": 2545,
      "Ġacc": 2546,
      "Ġnekroz": 2547,
      "Ġchampion": 2548,
      "tilian": 2549,
      "Ġru": 2550,
      "Ġflower": 2551,
      "Ġvampire": 2552,
      "mathmech": 2553,
      "icejade": 2554,
      "ike": 2555,
      "leria": 2556,
      "genesis": 2557,
      "lante": 2558,
      "Ġnightmare": 2559,
      "Ġterror": 2560,
      "artmage": 2561,
      "metalfoes": 2562,
      "Ġunderworld": 2563,
      "Ġmystical": 2564,
      "adventurer": 2565,
      "Ġsorcer": 2566,
      "gravekeeper": 2567,
      "tilianne": 2568,
      "gi": 2569,
      "gl": 2570,
      "erce": 2571,
      "ouse": 2572,
      "Ġfro": 2573,
      "Ġdanger": 2574,
      "pper": 2575,
      "otlan": 2576,
      "ynet": 2577,
      "Ġkn": 2578,
      "ido": 2579,
      "ift": 2580,
      "itrack": 2581,
      "Ġver": 2582,
      "aika": 2583,
      "hoti": 2584,
      "aven": 2585,
      "Ġspider": 2586,
      "Ġscrap": 2587,
      "nium": 2588,
      "Ġflames": 2589,
      "buster": 2590,
      "Ġarmored": 2591,
      "Ġsilent": 2592,
      "appliancer": 2593,
      "Ġmete": 2594,
      "ragnaraika": 2595,
      "illennium": 2596,
      "cant": 2597,
      "nd": 2598,
      "Ġtamer": 2599,
      "tist": 2600,
      "Ġball": 2601,
      "amanc": 2602,
      "Ġaw": 2603,
      "orrel": 2604,
      "Ġhel": 2605,
      "Ġmal": 2606,
      "Ġnor": 2607,
      "Ġmonsterswhile": 2608,
      "sik": 2609,
      "irth": 2610,
      "Ġearthbound": 2611,
      "eph": 2612,
      "ipator": 2613,
      "Ġflam": 2614,
      "Ġseed": 2615,
      "Ġprison": 2616,
      "herald": 2617,
      "heroic": 2618,
      "mekk": 2619,
      "Ġheads": 2620,
      "Ġpredator": 2621,
      "âĺĨ": 2622,
      "fortune": 2623,
      "tifact": 2624,
      "lantean": 2625,
      "cantation": 2626,
      "amancipator": 2627,
      "350": 2628,
      "450": 2629,
      "back": 2630,
      "kaiju": 2631,
      "mimighoul": 2632,
      "rin": 2633,
      "uki": 2634,
      "Ġamazoness": 2635,
      "dess": 2636,
      "Ġbub": 2637,
      "Ġbug": 2638,
      "Ġpan": 2639,
      "Ġdance": 2640,
      "Ġav": 2641,
      "Ġaz": 2642,
      "Ġwe": 2643,
      "Ġgu": 2644,
      "Ġmelodious": 2645,
      "Ġdoll": 2646,
      "Ġdragons": 2647,
      "ultimate": 2648,
      "Ġdiscards": 2649,
      "aiden": 2650,
      "istina": 2651,
      "Ġjud": 2652,
      "Ġspiral": 2653,
      "Ġtaken": 2654,
      "generaider": 2655,
      "chaos": 2656,
      "irage": 2657,
      "oudian": 2658,
      "Ġryu": 2659,
      "karakuri": 2660,
      "land": 2661,
      "over": 2662,
      "runick": 2663,
      "yon": 2664,
      "aring": 2665,
      "Ġsur": 2666,
      "Ġmonsteryou": 2667,
      "Ġfal": 2668,
      "tive": 2669,
      "Ġdust": 2670,
      "amili": 2671,
      "Ġghostrick": 2672,
      "Ġgadget": 2673,
      "Ġmecha": 2674,
      "Ġfierce": 2675,
      "Ġrevi": 2676,
      "Ġlightsworn": 2677,
      "Ġlinked": 2678,
      "oslayer": 2679,
      "Ġdrawing": 2680,
      "rong": 2681,
      "iker": 2682,
      "zefra": 2683,
      "utopic": 2684,
      "Ġtrue": 2685,
      "Ġmorphtronic": 2686,
      "amazement": 2687,
      "Ġbubble": 2688,
      "amiliar": 2689,
      "950": 2690,
      "bar": 2691,
      "cu": 2692,
      "fossil": 2693,
      "gment": 2694,
      "ib": 2695,
      "ipe": 2696,
      "mikanko": 2697,
      "nadium": 2698,
      "par": 2699,
      "sal": 2700,
      "yang": 2701,
      "yubel": 2702,
      "Ġright": 2703,
      "Ġtan": 2704,
      "Ġcrus": 2705,
      "Ġfeather": 2706,
      "Ġeter": 2707,
      "Ġbranded": 2708,
      "leg": 2709,
      "Ġdeep": 2710,
      "Ġwatt": 2711,
      "ork": 2712,
      "Ġmale": 2713,
      "Ġbehe": 2714,
      "trapt": 2715,
      "Ġlightning": 2716,
      "ula": 2717,
      "Ġka": 2718,
      "gate": 2719,
      "Ġshe": 2720,
      "ext": 2721,
      "Ġblaster": 2722,
      "Ġblader": 2723,
      "verse": 2724,
      "Ġboo": 2725,
      "Ġappli": 2726,
      "Ġadj": 2727,
      "raction": 2728,
      "skull": 2729,
      "iactor": 2730,
      "swordsoul": 2731,
      "Ġdefender": 2732,
      "sikil": 2733,
      "bug": 2734,
      "cubic": 2735,
      "dod": 2736,
      "ister": 2737,
      "iel": 2738,
      "jest": 2739,
      "mitsurugi": 2740,
      "ny": 2741,
      "oy": 2742,
      "Ġtran": 2743,
      "Ġtrickstar": 2744,
      "Ġtistina": 2745,
      "Ġfang": 2746,
      "actor": 2747,
      "Ġpain": 2748,
      "Ġdev": 2749,
      "vell": 2750,
      "Ġconstellar": 2751,
      "Ġmis": 2752,
      "Ġnow": 2753,
      "Ġdarklord": 2754,
      "oma": 2755,
      "Ġbeasts": 2756,
      "imp": 2757,
      "Ġwinds": 2758,
      "Ġdetached": 2759,
      "sym": 2760,
      "majespecter": 2761,
      "Ġspark": 2762,
      "Ġscor": 2763,
      "valley": 2764,
      "koa": 2765,
      "Ġadditional": 2766,
      "Ġcreation": 2767,
      "Ġhope": 2768,
      "Ġcharge": 2769,
      "Ġhyd": 2770,
      "battlewasp": 2771,
      "umeron": 2772,
      "Ġrealm": 2773,
      "Ġbehemoth": 2774,
      "dy": 2775,
      "dia": 2776,
      "hy": 2777,
      "mite": 2778,
      "necro": 2779,
      "vaylantz": 2780,
      "zw": 2781,
      "atellarknight": 2782,
      "deskbot": 2783,
      "ism": 2784,
      "infin": 2785,
      "acent": 2786,
      "actic": 2787,
      "let": 2788,
      "Ġpi": 2789,
      "Ġpal": 2790,
      "Ġdid": 2791,
      "Ġax": 2792,
      "Ġwolf": 2793,
      "ript": 2794,
      "Ġnordic": 2795,
      "sive": 2796,
      "Ġarm": 2797,
      "Ġchallen": 2798,
      "Ġchronomaly": 2799,
      "agle": 2800,
      "Ġris": 2801,
      "Ġva": 2802,
      "ellow": 2803,
      "Ġray": 2804,
      "Ġscript": 2805,
      "Ġadv": 2806,
      "Ġmagistus": 2807,
      "cyberdark": 2808,
      "press": 2809,
      "Ġlists": 2810,
      "Ġogdoadic": 2811,
      "Ġhorse": 2812,
      "Ġvoiceless": 2813,
      "Ġcapt": 2814,
      "vernusylph": 2815,
      "Ġturtle": 2816,
      "metaphys": 2817,
      "Ġflying": 2818,
      "Ġadjacent": 2819,
      "!!": 2820,
      "carn": 2821,
      "oo": 2822,
      "oon": 2823,
      "ram": 2824,
      "sn": 2825,
      "Ġfull": 2826,
      "Ġpot": 2827,
      "Ġdread": 2828,
      "Ġspeedroid": 2829,
      "Ġghoti": 2830,
      "Ġharpie": 2831,
      "Ġinter": 2832,
      "Ġmitsurugi": 2833,
      "rant": 2834,
      "Ġplunder": 2835,
      "Ġdragonmaid": 2836,
      "Ġkarakuri": 2837,
      "Ġdiscarding": 2838,
      "ilight": 2839,
      "Ġvi": 2840,
      "Ġvan": 2841,
      "Ġvis": 2842,
      "phon": 2843,
      "Ġscar": 2844,
      "Ġincreased": 2845,
      "Ġlost": 2846,
      "stars": 2847,
      "Ġproph": 2848,
      "Ġshaddoll": 2849,
      "Ġmagnet": 2850,
      "Ġmyster": 2851,
      "Ġmythical": 2852,
      "batteryman": 2853,
      "Ġgives": 2854,
      "infernoble": 2855,
      "462": 2856,
      "Ġquantal": 2857,
      "Ġrequires": 2858,
      "Ġresonator": 2859,
      "Ġdinom": 2860,
      "self": 2861,
      "Ġremaining": 2862,
      "Ġsorcerer": 2863,
      "traptrix": 2864,
      "branded": 2865,
      "dis": 2866,
      "eze": 2867,
      "jurrac": 2868,
      "mayakashi": 2869,
      "ninjitsu": 2870,
      "psy": 2871,
      "sen": 2872,
      "saur": 2873,
      "sinful": 2874,
      "tail": 2875,
      "watt": 2876,
      "well": 2877,
      "Ġsqui": 2878,
      "ene": 2879,
      "Ġoc": 2880,
      "rill": 2881,
      "Ġbrotherhood": 2882,
      "elord": 2883,
      "Ġspear": 2884,
      "Ġgimmick": 2885,
      "orus": 2886,
      "orpha": 2887,
      "sus": 2888,
      "Ġmadolche": 2889,
      "Ġmaiden": 2890,
      "Ġreg": 2891,
      "Ġnem": 2892,
      "adin": 2893,
      "Ġkaiju": 2894,
      "ousand": 2895,
      "flame": 2896,
      "Ġchimera": 2897,
      "fiendsmith": 2898,
      "eye": 2899,
      "lementsaber": 2900,
      "anced": 2901,
      "Ġjunk": 2902,
      "Ġsee": 2903,
      "Ġrab": 2904,
      "boo": 2905,
      "Ġheavy": 2906,
      "Ġheaven": 2907,
      "Ġinfernity": 2908,
      "Ġsnow": 2909,
      "vision": 2910,
      "Ġhyper": 2911,
      "clear": 2912,
      "dracotail": 2913,
      "Ġhunter": 2914,
      "Ġcrimson": 2915,
      "orphage": 2916,
      "\"\"": 2917,
      "bra": 2918,
      "bran": 2919,
      "bol": 2920,
      "eer": 2921,
      "gg": 2922,
      "oow": 2923,
      "pion": 2924,
      "synchron": 2925,
      "ting": 2926,
      "zy": 2927,
      "Ġutopia": 2928,
      "Ġte": 2929,
      "Ġsig": 2930,
      "rose": 2931,
      "alien": 2932,
      "Ġeagle": 2933,
      "Ġbuster": 2934,
      "Ġprom": 2935,
      "Ġpick": 2936,
      "Ġdown": 2937,
      "rake": 2938,
      "Ġair": 2939,
      "Ġsuc": 2940,
      "andere": 2941,
      "Ġget": 2942,
      "uture": 2943,
      "Ġhorn": 2944,
      "Ġleft": 2945,
      "ready": 2946,
      "regenesis": 2947,
      "Ġmad": 2948,
      "Ġmik": 2949,
      "Ġlan": 2950,
      "Ġlabrynth": 2951,
      "sir": 2952,
      "Ġbeet": 2953,
      "cho": 2954,
      "char": 2955,
      "ump": 2956,
      "und": 2957,
      "Ġstat": 2958,
      "Ġunu": 2959,
      "Ġshining": 2960,
      "Ġdiab": 2961,
      "beetrooper": 2962,
      "bli": 2963,
      "oker": 2964,
      "Ġjar": 2965,
      "megalith": 2966,
      "allow": 2967,
      "shining": 2968,
      "gostars": 2969,
      "windwitch": 2970,
      "Ġgive": 2971,
      "Ġslime": 2972,
      "Ġquantum": 2973,
      "Ġfortune": 2974,
      "Ġdriver": 2975,
      "Ġcurse": 2976,
      "Ġmuch": 2977,
      "Ġcorr": 2978,
      "cipher": 2979,
      "Ġcastle": 2980,
      "heraldic": 2981,
      "symphonic": 2982,
      "oowandere": 2983,
      "oowandereeze": 2984,
      "550": 2985,
      "ive": 2986,
      "mater": 2987,
      "mas": 2988,
      "mium": 2989,
      "nir": 2990,
      "nouvelles": 2991,
      "op": 2992,
      "rd": 2993,
      "wall": 2994,
      "Ġtrain": 2995,
      "Ġsqu": 2996,
      "Ġspl": 2997,
      "Ġspiritual": 2998,
      "ros": 2999,
      "Ġfog": 3000,
      "Ġevolution": 3001,
      "Ġbr": 3002,
      "Ġbra": 3003,
      "Ġbell": 3004,
      "Ġbiker": 3005,
      "Ġdrytron": 3006,
      "ammer": 3007,
      "Ġae": 3008,
      "Ġhav": 3009,
      "thing": 3010,
      "Ġnec": 3011,
      "Ġperform": 3012,
      "sia": 3013,
      "ung": 3014,
      "Ġgravekeeper": 3015,
      "antis": 3016,
      "Ġ5000": 3017,
      "Ġdice": 3018,
      "Ġvylon": 3019,
      "Ġranks": 3020,
      "Ġjet": 3021,
      "Ġsearing": 3022,
      "aded": 3023,
      "sessed": 3024,
      "Ġheat": 3025,
      "azamina": 3026,
      "Ġarcher": 3027,
      "Ġmarincess": 3028,
      "Ġmax": 3029,
      "Ġpremium": 3030,
      "Ġcharmer": 3031,
      "triamid": 3032,
      "Ġlaunch": 3033,
      "gogogo": 3034,
      "Ġrainbow": 3035,
      "Ġgardna": 3036,
      "possessed": 3037,
      "tistina": 3038,
      "Ġawakening": 3039,
      "Ġmalebran": 3040,
      "impcantation": 3041,
      "Ġbeetle": 3042,
      "Ġmalebranche": 3043,
      ");âĹı": 3044,
      "-\"": 3045,
      "813": 3046,
      "da": 3047,
      "golden": 3048,
      "ku": 3049,
      "kuriboh": 3050,
      "melffy": 3051,
      "ner": 3052,
      "ora": 3053,
      "ppe": 3054,
      "rec": 3055,
      "uck": 3056,
      "vious": 3057,
      "ydle": 3058,
      "Ġcap": 3059,
      "Ġsle": 3060,
      "dem": 3061,
      "Ġmonstercannot": 3062,
      "alth": 3063,
      "ales": 3064,
      "tim": 3065,
      "Ġburn": 3066,
      "amma": 3067,
      "Ġast": 3068,
      "Ġsupp": 3069,
      "Ġge": 3070,
      "Ġgouki": 3071,
      "Ġhu": 3072,
      "Ġmin": 3073,
      "Ġmak": 3074,
      "Ġorcust": 3075,
      "Ġbear": 3076,
      "Ġrefl": 3077,
      "iction": 3078,
      "Ġalready": 3079,
      "chi": 3080,
      "Ġuni": 3081,
      "Ġunit": 3082,
      "aku": 3083,
      "Ġkuriboh": 3084,
      "Ġsho": 3085,
      "Ġdia": 3086,
      "byrin": 3087,
      "Ġheroic": 3088,
      "Ġblock": 3089,
      "meses": 3090,
      "Ġkings": 3091,
      "volcanic": 3092,
      "Ġener": 3093,
      "Ġmeg": 3094,
      "Ġtwo": 3095,
      "Ġtwilight": 3096,
      "avalon": 3097,
      "Ġprevious": 3098,
      "Ġrebirth": 3099,
      "Ġgreed": 3100,
      "Ġdrill": 3101,
      "phantom": 3102,
      "Ġsubst": 3103,
      "Ġvenom": 3104,
      "evoltile": 3105,
      "elerator": 3106,
      "Ġapplied": 3107,
      "dodod": 3108,
      "Ġscorpion": 3109,
      "necrovalley": 3110,
      "Ġstatue": 3111,
      "byrinth": 3112,
      "1000": 3113,
      "82": 3114,
      "aper": 3115,
      "draw": 3116,
      "far": 3117,
      "ji": 3118,
      "jing": 3119,
      "labrynth": 3120,
      "neph": 3121,
      "sl": 3122,
      "sor": 3123,
      "sang": 3124,
      "tem": 3125,
      "worm": 3126,
      "yo": 3127,
      "Ġq": 3128,
      "Ġrikka": 3129,
      "Ġpenguin": 3130,
      "ane": 3131,
      "Ġthousand": 3132,
      "mond": 3133,
      "Ġsim": 3134,
      "Ġski": 3135,
      "Ġsav": 3136,
      "int": 3137,
      "Ġoffer": 3138,
      "ross": 3139,
      "Ġfuture": 3140,
      "riend": 3141,
      "Ġpur": 3142,
      "Ġdro": 3143,
      "Ġdre": 3144,
      "Ġday": 3145,
      "urm": 3146,
      "Ġwy": 3147,
      "Ġgol": 3148,
      "Ġmikanko": 3149,
      "Ġmirage": 3150,
      "Ġlancer": 3151,
      "Ġcode": 3152,
      "queen": 3153,
      "royal": 3154,
      "Ġext": 3155,
      "Ġbattlin": 3156,
      "Ġalpha": 3157,
      "Ġaltergeist": 3158,
      "extra": 3159,
      "Ġvery": 3160,
      "Ġpaying": 3161,
      "Ġmoves": 3162,
      "aba": 3163,
      "inister": 3164,
      "Ġpowerful": 3165,
      "monsters": 3166,
      "Ġryzeal": 3167,
      "ymion": 3168,
      "Ġdawn": 3169,
      "Ġgoddess": 3170,
      "Ġgeneral": 3171,
      "Ġtreas": 3172,
      "Ġfrog": 3173,
      "Ġflamvell": 3174,
      "Ġjudgment": 3175,
      "diabell": 3176,
      "jingi": 3177,
      "42": 3178,
      "du": 3179,
      "either": 3180,
      "gine": 3181,
      "gia": 3182,
      "junk": 3183,
      "lil": 3184,
      "lich": 3185,
      "mir": 3186,
      "ood": 3187,
      "ral": 3188,
      "spiritual": 3189,
      "Ġtext": 3190,
      "arcana": 3191,
      "Ġcer": 3192,
      "Ġcle": 3193,
      "Ġsab": 3194,
      "Ġsyl": 3195,
      "Ġsym": 3196,
      "Ġmonk": 3197,
      "Ġmonsterthis": 3198,
      "Ġfinal": 3199,
      "Ġfear": 3200,
      "Ġfriend": 3201,
      "Ġevol": 3202,
      "ecy": 3203,
      "lease": 3204,
      "ami": 3205,
      "Ġwizard": 3206,
      "eddon": 3207,
      "Ġha": 3208,
      "Ġhidden": 3209,
      "cean": 3210,
      "Ġitself": 3211,
      "Ġlit": 3212,
      "Ġlaval": 3213,
      "Ġlizard": 3214,
      "Ġperf": 3215,
      "Ġrescue": 3216,
      "Ġ3100": 3217,
      "Ġalien": 3218,
      "Ġstardust": 3219,
      "Ġgrav": 3220,
      "Ġzo": 3221,
      "Ġ-\"": 3222,
      "field": 3223,
      "Ġvaylantz": 3224,
      "Ġtuners": 3225,
      "ryzeal": 3226,
      "Ġbook": 3227,
      "ellion": 3228,
      "where": 3229,
      "Ġjack": 3230,
      "Ġjurrac": 3231,
      "Ġrage": 3232,
      "Ġscales": 3233,
      "izmek": 3234,
      "coon": 3235,
      "jinn": 3236,
      "Ġstriking": 3237,
      "Ġshiranui": 3238,
      "Ġslash": 3239,
      "Ġresonance": 3240,
      "Ġmonarchs": 3241,
      "steel": 3242,
      "breaker": 3243,
      "Ġaccelerator": 3244,
      "Ġavian": 3245,
      "infinitrack": 3246,
      "Ġchallenger": 3247,
      "Ġunused": 3248,
      "Ġhaving": 3249,
      "Ġdiamond": 3250,
      "Ġenergy": 3251,
      "Ġsubstit": 3252,
      "Ġsylvan": 3253,
      "\".âĹı": 3254,
      "after": 3255,
      "bi": 3256,
      "cup": 3257,
      "face": 3258,
      "kurib": 3259,
      "rat": 3260,
      "rough": 3261,
      "ya": 3262,
      "zing": 3263,
      "Ġtrans": 3264,
      "Ġtactic": 3265,
      "atrix": 3266,
      "Ġsal": 3267,
      "Ġedge": 3268,
      "Ġbow": 3269,
      "leur": 3270,
      "Ġdwell": 3271,
      "ures": 3272,
      "Ġdem": 3273,
      "Ġgag": 3274,
      "Ġgusto": 3275,
      "Ġgishki": 3276,
      "summon": 3277,
      "Ġlunalight": 3278,
      "Ġcoll": 3279,
      "aceful": 3280,
      "simor": 3281,
      "Ġatlantean": 3282,
      "icorn": 3283,
      "unish": 3284,
      "Ġadds": 3285,
      "Ġarmy": 3286,
      "Ġarcana": 3287,
      "Ġkey": 3288,
      "Ġanywhere": 3289,
      "Ġstars": 3290,
      "Ġswe": 3291,
      "netic": 3292,
      "mannadium": 3293,
      "dent": 3294,
      "Ġinclu": 3295,
      "lta": 3296,
      "Ġpredaplant": 3297,
      "Ġabsol": 3298,
      "Ġenemy": 3299,
      "phantas": 3300,
      "Ġprotector": 3301,
      "Ġphantasms": 3302,
      "Ġtank": 3303,
      "snake": 3304,
      "Ġprophecy": 3305,
      "Ġnemleria": 3306,
      "materiactor": 3307,
      "mask": 3308,
      "nephthys": 3309,
      "simorgh": 3310,
      "ape": 3311,
      "bon": 3312,
      "bur": 3313,
      "borg": 3314,
      "borrel": 3315,
      "cat": 3316,
      "dom": 3317,
      "elementsaber": 3318,
      "gin": 3319,
      "iant": 3320,
      "rum": 3321,
      "zer": 3322,
      "ĠâĹı": 3323,
      "onder": 3324,
      "armor": 3325,
      "ano": 3326,
      "storm": 3327,
      "stone": 3328,
      "ata": 3329,
      "Ġsen": 3330,
      "Ġmonsteronce": 3331,
      "Ġfa": 3332,
      "Ġfamiliar": 3333,
      "Ġesc": 3334,
      "tial": 3335,
      "Ġbond": 3336,
      "Ġdig": 3337,
      "Ġdancer": 3338,
      "amboo": 3339,
      "Ġdesi": 3340,
      "Ġdead": 3341,
      "scend": 3342,
      "Ġhieratic": 3343,
      "romag": 3344,
      "rep": 3345,
      "Ġmed": 3346,
      "Ġmachina": 3347,
      "Ġ2450": 3348,
      "Ġlim": 3349,
      "eldlich": 3350,
      "Ġwhirl": 3351,
      "Ġreplace": 3352,
      "chem": 3353,
      "una": 3354,
      "aser": 3355,
      "adamancipator": 3356,
      "Ġarmag": 3357,
      "Ġship": 3358,
      "Ġshari": 3359,
      "olog": 3360,
      "Ġflare": 3361,
      "Ġbody": 3362,
      "oked": 3363,
      "Ġrevealing": 3364,
      "spright": 3365,
      "Ġremoving": 3366,
      "Ġseraph": 3367,
      "Ġclay": 3368,
      "jinzo": 3369,
      "Ġmagn": 3370,
      "ically": 3371,
      "Ġground": 3372,
      "Ġelf": 3373,
      "primite": 3374,
      "silent": 3375,
      "Ġstealth": 3376,
      "Ġhorus": 3377,
      "Ġhorror": 3378,
      "mementotlan": 3379,
      "dinomist": 3380,
      "divine": 3381,
      "Ġtemple": 3382,
      "Ġbaby": 3383,
      "Ġrelic": 3384,
      "aesir": 3385,
      "Ġplanet": 3386,
      "Ġmasked": 3387,
      "Ġemergen": 3388,
      "Ġmeteor": 3389,
      "Ġfalcon": 3390,
      "Ġkaiser": 3391,
      "Ġsuccess": 3392,
      "Ġwyvern": 3393,
      "Ġclear": 3394,
      "Ġlittle": 3395,
      "Ġarmageddon": 3396,
      "750": 3397,
      "brotherhood": 3398,
      "cur": 3399,
      "cynet": 3400,
      "double": 3401,
      "hieratic": 3402,
      "uro": 3403,
      "vylon": 3404,
      "Ġent": 3405,
      "Ġrap": 3406,
      "Ġroyal": 3407,
      "ars": 3408,
      "aroma": 3409,
      "Ġcip": 3410,
      "Ġcrystron": 3411,
      "Ġthree": 3412,
      "Ġsinful": 3413,
      "Ġoff": 3414,
      "rot": 3415,
      "Ġfrightfur": 3416,
      "Ġbers": 3417,
      "Ġbush": 3418,
      "Ġpill": 3419,
      "Ġdual": 3420,
      "aman": 3421,
      "Ġapo": 3422,
      "Ġappe": 3423,
      "Ġtool": 3424,
      "Ġspeed": 3425,
      "Ġsummoner": 3426,
      "Ġhum": 3427,
      "Ġhim": 3428,
      "ces": 3429,
      "Ġmem": 3430,
      "Ġmillennium": 3431,
      "Ġcontact": 3432,
      "Ġnouvelles": 3433,
      "Ġbeau": 3434,
      "Ġrein": 3435,
      "hamon": 3436,
      "Ġsty": 3437,
      "ette": 3438,
      "Ġshell": 3439,
      "spec": 3440,
      "Ġbutter": 3441,
      "Ġflash": 3442,
      "Ġblaz": 3443,
      "hole": 3444,
      "nemeses": 3445,
      "Ġyellow": 3446,
      "Ġrocket": 3447,
      "Ġmonstersyour": 3448,
      "Ġevilswarm": 3449,
      "Ġinfernal": 3450,
      "viel": 3451,
      "Ġglo": 3452,
      "Ġvoid": 3453,
      "gasus": 3454,
      "Ġvalley": 3455,
      "Ġdogmatika": 3456,
      "Ġcursed": 3457,
      "Ġmermail": 3458,
      "Ġsaid": 3459,
      "Ġtorn": 3460,
      "Ġheraldry": 3461,
      "Ġtenyi": 3462,
      "Ġspecif": 3463,
      "Ġcycl": 3464,
      "Ġrevival": 3465,
      "Ġpaladin": 3466,
      "Ġaxe": 3467,
      "Ġrising": 3468,
      "Ġvaalmonica": 3469,
      "Ġcaptain": 3470,
      "Ġvanquish": 3471,
      "Ġrabbit": 3472,
      "Ġlanius": 3473,
      "Ġsquad": 3474,
      "Ġshoot": 3475,
      "Ġsubstitute": 3476,
      "Ġcipher": 3477,
      "Ġberser": 3478,
      "ever": 3479,
      "gar": 3480,
      "gth": 3481,
      "gadget": 3482,
      "horus": 3483,
      "jack": 3484,
      "pr": 3485,
      "pai": 3486,
      "qli": 3487,
      "wal": 3488,
      "zard": 3489,
      "Ġur": 3490,
      "Ġrol": 3491,
      "Ġrag": 3492,
      "Ġtrick": 3493,
      "Ġtele": 3494,
      "artifact": 3495,
      "argostars": 3496,
      "Ġthrough": 3497,
      "ought": 3498,
      "Ġsand": 3499,
      "Ġsome": 3500,
      "Ġmonsterwhen": 3501,
      "Ġojama": 3502,
      "Ġoption": 3503,
      "Ġocean": 3504,
      "Ġ1350": 3505,
      "Ġ1950": 3506,
      "Ġ1550": 3507,
      "Ġbri": 3508,
      "Ġbel": 3509,
      "Ġbrain": 3510,
      "Ġpin": 3511,
      "Ġdeal": 3512,
      "Ġwander": 3513,
      "Ġgat": 3514,
      "Ġgri": 3515,
      "Ġgry": 3516,
      "Ġhow": 3517,
      "Ġleo": 3518,
      "Ġinzektor": 3519,
      "Ġconver": 3520,
      "Ġmel": 3521,
      "Ġmok": 3522,
      "Ġlayer": 3523,
      "Ġmonstersall": 3524,
      "Ġdestroyer": 3525,
      "Ġwhe": 3526,
      "sic": 3527,
      "Ġrelease": 3528,
      "Ġ4500": 3529,
      "iche": 3530,
      "perial": 3531,
      "Ġstream": 3532,
      "Ġstren": 3533,
      "cloudian": 3534,
      "Ġrh": 3535,
      "Ġvir": 3536,
      "Ġvendread": 3537,
      "Ġchann": 3538,
      "phere": 3539,
      "oko": 3540,
      "Ġselene": 3541,
      "aurus": 3542,
      "Ġwings": 3543,
      "Ġmoth": 3544,
      "headed": 3545,
      "starry": 3546,
      "Ġsouls": 3547,
      "Ġigknight": 3548,
      "Ġguardragon": 3549,
      "magnet": 3550,
      "Ġswordsoul": 3551,
      "Ġinferno": 3552,
      "Ġpegasus": 3553,
      "Ġgreen": 3554,
      "Ġwitchcrafter": 3555,
      "counters": 3556,
      "Ġbujin": 3557,
      "Ġelectromag": 3558,
      "Ġkeeper": 3559,
      "Ġreptilianne": 3560,
      "phinx": 3561,
      "Ġmekk": 3562,
      "Ġmeklord": 3563,
      "Ġcommand": 3564,
      "heads": 3565,
      "Ġbubbleman": 3566,
      "legendary": 3567,
      "Ġbooster": 3568,
      "Ġvision": 3569,
      "tails": 3570,
      "dododo": 3571,
      "steelswarm": 3572,
      "Ġabsolute": 3573,
      "Ġwhirlwind": 3574,
      "Ġmemory": 3575,
      "Ġspecifically": 3576,
      "Ġgryphon": 3577,
      "ball": 3578,
      "dl": 3579,
      "ii": 3580,
      "lip": 3581,
      "ozo": 3582,
      "tain": 3583,
      "vor": 3584,
      "Ġutopic": 3585,
      "Ġcase": 3586,
      "Ġcount": 3587,
      "Ġsch": 3588,
      "pest": 3589,
      "ena": 3590,
      "inatrix": 3591,
      "Ġobli": 3592,
      "Ġfu": 3593,
      "Ġele": 3594,
      "Ġeater": 3595,
      "Ġeld": 3596,
      "Ġelement": 3597,
      "Ġbless": 3598,
      "Ġprank": 3599,
      "Ġdino": 3600,
      "amorphage": 3601,
      "Ġdesp": 3602,
      "raviel": 3603,
      "Ġwis": 3604,
      "Ġinf": 3605,
      "Ġmigh": 3606,
      "Ġmay": 3607,
      "Ġmess": 3608,
      "Ġmount": 3609,
      "Ġmatch": 3610,
      "Ġmdl": 3611,
      "Ġfight": 3612,
      "Ġlow": 3613,
      "Ġperformage": 3614,
      "Ġspellbook": 3615,
      "Ġbeetrooper": 3616,
      "Ġrevolution": 3617,
      "Ġsting": 3618,
      "Ġendymion": 3619,
      "tern": 3620,
      "Ġunchained": 3621,
      "clock": 3622,
      "Ġreturning": 3623,
      "Ġnova": 3624,
      "exal": 3625,
      "Ġvicious": 3626,
      "ronic": 3627,
      "blaze": 3628,
      "ella": 3629,
      "Ġsister": 3630,
      "Ġjam": 3631,
      "Ġswamp": 3632,
      "allure": 3633,
      "estess": 3634,
      "Ġmement": 3635,
      "Ġrobot": 3636,
      "Ġincreases": 3637,
      "aleozo": 3638,
      "Ġclock": 3639,
      "Ġmajest": 3640,
      "Ġprevent": 3641,
      "trix": 3642,
      "Ġcatap": 3643,
      "smic": 3644,
      "Ġlabyrinth": 3645,
      "dracoslayer": 3646,
      "Ġmystic": 3647,
      "Ġsubterror": 3648,
      "Ġburstinatrix": 3649,
      "sunavalon": 3650,
      "Ġtwins": 3651,
      "Ġvolcanic": 3652,
      "Ġphantasm": 3653,
      "Ġcircle": 3654,
      "Ġtails": 3655,
      "grand": 3656,
      "Ġazamina": 3657,
      "Ġeternal": 3658,
      "carnation": 3659,
      "discard": 3660,
      "Ġsignal": 3661,
      "Ġincludes": 3662,
      "reptilianne": 3663,
      "Ġblessing": 3664,
      "Ġlowest": 3665,
      "aleozoic": 3666,
      "650": 3667,
      "bing": 3668,
      "each": 3669,
      "ging": 3670,
      "hand": 3671,
      "io": 3672,
      "ijin": 3673,
      "mi": 3674,
      "pan": 3675,
      "pot": 3676,
      "sec": 3677,
      "sara": 3678,
      "satellarknight": 3679,
      "take": 3680,
      "uan": 3681,
      "work": 3682,
      "yst": 3683,
      "Ġ00": 3684,
      "onis": 3685,
      "onna": 3686,
      "Ġtach": 3687,
      "Ġtit": 3688,
      "Ġcre": 3689,
      "Ġsaga": 3690,
      "Ġsynth": 3691,
      "Ġsinister": 3692,
      "Ġob": 3693,
      "Ġfen": 3694,
      "Ġegg": 3695,
      "tit": 3696,
      "tice": 3697,
      "Ġber": 3698,
      "Ġbal": 3699,
      "Ġdjinn": 3700,
      "Ġwatch": 3701,
      "Ġwonder": 3702,
      "Ġtower": 3703,
      "Ġgamma": 3704,
      "Ġhall": 3705,
      "Ġmalefic": 3706,
      "pping": 3707,
      "sif": 3708,
      "Ġuses": 3709,
      "Ġexpl": 3710,
      "Ġ3400": 3711,
      "ication": 3712,
      "Ġtraptrix": 3713,
      "Ġstr": 3714,
      "ular": 3715,
      "Ġgained": 3716,
      "Ġunicorn": 3717,
      "aki": 3718,
      "ssom": 3719,
      "return": 3720,
      "Ġshog": 3721,
      "Ġshatter": 3722,
      "ipul": 3723,
      "Ġring": 3724,
      "Ġrunick": 3725,
      "Ġvirt": 3726,
      "Ġvirtual": 3727,
      "Ġblaze": 3728,
      "Ġboard": 3729,
      "syl": 3730,
      "cular": 3731,
      "odia": 3732,
      "shin": 3733,
      "shino": 3734,
      "Ġskele": 3735,
      "Ġengine": 3736,
      "Ġxx": 3737,
      "izzard": 3738,
      "Ġcloud": 3739,
      "gener": 3740,
      "forbidden": 3741,
      "Ġmiracle": 3742,
      "myst": 3743,
      "Ġ?/": 3744,
      "Ġempower": 3745,
      "Ġmajespecter": 3746,
      "Ġoverlord": 3747,
      "Ġcrow": 3748,
      "Ġgreater": 3749,
      "Ġmetalmorph": 3750,
      "Ġmusketeer": 3751,
      "tenyi": 3752,
      "load": 3753,
      "Ġbujingi": 3754,
      "advanced": 3755,
      "...": 3756,
      "Ġmultip": 3757,
      "Ġbloom": 3758,
      "Ġblossom": 3759,
      "Ġsheep": 3760,
      "Ġsparkman": 3761,
      "senal": 3762,
      "Ġdiabell": 3763,
      "Ġcorrect": 3764,
      "Ġhuge": 3765,
      "Ġdrew": 3766,
      "Ġlimit": 3767,
      "Ġemergency": 3768,
      "Ġbushido": 3769,
      "Ġtornado": 3770,
      "Ġmokey": 3771,
      "ichever": 3772,
      "Ġstrength": 3773,
      "Ġvirus": 3774,
      "Ġmighty": 3775,
      "Ġcatapult": 3776,
      "Ġtachyon": 3777,
      "'t": 3778,
      "62": 3779,
      "ah": 3780,
      "cri": 3781,
      "duc": 3782,
      "full": 3783,
      "gn": 3784,
      "ghost": 3785,
      "millennium": 3786,
      "py": 3787,
      "ris": 3788,
      "ues": 3789,
      "uous": 3790,
      "vas": 3791,
      "Ġly": 3792,
      "Ġpet": 3793,
      "Ġursarctic": 3794,
      "Ġtree": 3795,
      "Ġcele": 3796,
      "Ġcynet": 3797,
      "erion": 3798,
      "Ġthron": 3799,
      "monarch": 3800,
      "Ġsonic": 3801,
      "Ġoath": 3802,
      "Ġfre": 3803,
      "Ġfate": 3804,
      "Ġfleur": 3805,
      "ried": 3806,
      "ries": 3807,
      "acri": 3808,
      "acock": 3809,
      "alle": 3810,
      "Ġ1650": 3811,
      "attraction": 3812,
      "Ġbring": 3813,
      "Ġpas": 3814,
      "Ġpsy": 3815,
      "Ġpunish": 3816,
      "Ġdrake": 3817,
      "Ġden": 3818,
      "Ġwrong": 3819,
      "anda": 3820,
      "Ġgift": 3821,
      "orgh": 3822,
      "Ġhound": 3823,
      "Ġhouse": 3824,
      "Ġmantis": 3825,
      "range": 3826,
      "Ġoracle": 3827,
      "Ġninjitsu": 3828,
      "Ġnumeron": 3829,
      "Ġlamp": 3830,
      "quer": 3831,
      "sid": 3832,
      "sies": 3833,
      "igo": 3834,
      "ote": 3835,
      "Ġ3800": 3836,
      "chant": 3837,
      "Ġdol": 3838,
      "Ġneed": 3839,
      "ulse": 3840,
      "aker": 3841,
      ".âĹı(": 3842,
      "Ġartifact": 3843,
      "floowandereeze": 3844,
      "Ġshr": 3845,
      "Ġshin": 3846,
      "Ġshock": 3847,
      "cluding": 3848,
      "top": 3849,
      "Ġpoint": 3850,
      "Ġdetaching": 3851,
      "eyed": 3852,
      "ront": 3853,
      "most": 3854,
      "eremon": 3855,
      "Ġjoy": 3856,
      "Ġseas": 3857,
      "Ġtyrant": 3858,
      "Ġselects": 3859,
      "ears": 3860,
      "Ġspyral": 3861,
      "Ġmega": 3862,
      "Ġadvent": 3863,
      "Ġclown": 3864,
      "Ġpossessed": 3865,
      "Ġmagikey": 3866,
      "Ġpath": 3867,
      "Ġkozmo": 3868,
      "Ġherm": 3869,
      "Ġpeacock": 3870,
      "Ġcrown": 3871,
      "athmech": 3872,
      "Ġmassive": 3873,
      "frog": 3874,
      "venth": 3875,
      "Ġdinowrestler": 3876,
      "Ġsmash": 3877,
      "Ġclaws": 3878,
      "geargia": 3879,
      "Ġpiec": 3880,
      "recipe": 3881,
      "Ġsimorgh": 3882,
      "Ġsymphonic": 3883,
      "Ġgravity": 3884,
      "Ġtactics": 3885,
      "ginning": 3886,
      "Ġdeadly": 3887,
      "Ġclayman": 3888,
      "Ġbutterfly": 3889,
      "Ġblazing": 3890,
      "Ġvirtuous": 3891,
      "sylvan": 3892,
      "crimson": 3893,
      "\"(": 3894,
      "bal": 3895,
      "ced": 3896,
      "dimension": 3897,
      "har": 3898,
      "like": 3899,
      "mb": 3900,
      "nem": 3901,
      "numeron": 3902,
      "of": 3903,
      "oad": 3904,
      "pa": 3905,
      "rator": 3906,
      "sman": 3907,
      "tran": 3908,
      "use": 3909,
      "Ġta": 3910,
      "Ġtsu": 3911,
      "Ġtun": 3912,
      "Ġtearlaments": 3913,
      "Ġcran": 3914,
      "Ġcrusadia": 3915,
      "Ġspi": 3916,
      "ince": 3917,
      "inquish": 3918,
      "Ġfound": 3919,
      "Ġfallen": 3920,
      "Ġfossil": 3921,
      "rice": 3922,
      "ally": 3923,
      "Ġear": 3924,
      "Ġbone": 3925,
      "Ġpu": 3926,
      "Ġdyn": 3927,
      "Ġdai": 3928,
      "amorph": 3929,
      "elle": 3930,
      "uru": 3931,
      "Ġdec": 3932,
      "Ġdeity": 3933,
      "Ġdelta": 3934,
      "Ġaut": 3935,
      "Ġgh": 3936,
      "Ġgorg": 3937,
      "Ġmam": 3938,
      "Ġmark": 3939,
      "Ġmimighoul": 3940,
      "Ġ20": 3941,
      "Ġ2350": 3942,
      "Ġlil": 3943,
      "Ġlike": 3944,
      "Ġbest": 3945,
      "Ġbeta": 3946,
      "igknight": 3947,
      "Ġant": 3948,
      "Ġanti": 3949,
      "Ġexosister": 3950,
      "Ġres": 3951,
      "unted": 3952,
      "asma": 3953,
      "Ġzw": 3954,
      "Ġarts": 3955,
      "Ġarsenal": 3956,
      "Ġkid": 3957,
      "Ġkashtira": 3958,
      "Ġcher": 3959,
      "inder": 3960,
      "idos": 3961,
      "osh": 3962,
      "osis": 3963,
      "Ġram": 3964,
      "reath": 3965,
      "toy": 3966,
      "bystial": 3967,
      "Ġfluffal": 3968,
      "Ġvanish": 3969,
      "Ġvill": 3970,
      "oku": 3971,
      "whichever": 3972,
      "Ġswallow": 3973,
      "Ġmanipul": 3974,
      "shath": 3975,
      "shbug": 3976,
      "Ġspring": 3977,
      "Ġspringans": 3978,
      "Ġraz": 3979,
      "osaurus": 3980,
      "Ġowners": 3981,
      "knightmare": 3982,
      "onda": 3983,
      "Ġcloudian": 3984,
      "cane": 3985,
      "Ġlegend": 3986,
      "Ġpowers": 3987,
      "Ġmyutant": 3988,
      "Ġgraceful": 3989,
      "Ġamb": 3990,
      "Ġdracon": 3991,
      "Ġdracoslayer": 3992,
      "Ġshien": 3993,
      "Ġinfernoble": 3994,
      "Ġglow": 3995,
      "Ġlibromancer": 3996,
      "graydle": 3997,
      "Ġabsor": 3998,
      "Ġmermaid": 3999,
      "assal": 4000,
      "Ġsaber": 4001,
      "Ġprotect": 4002,
      "ciple": 4003,
      "Ġpaid": 4004,
      "Ġmultiple": 4005,
      "Ġgiga": 4006,
      "Ġkeep": 4007,
      "Ġtravel": 4008,
      "Ġcommander": 4009,
      "Ġsteelswarm": 4010,
      "Ġdomain": 4011,
      "Ġruin": 4012,
      "Ġpanther": 4013,
      "Ġpainter": 4014,
      "Ġsquire": 4015,
      "Ġheavenly": 4016,
      "Ġpicks": 4017,
      "Ġsleep": 4018,
      "temple": 4019,
      "Ġzoodiac": 4020,
      "Ġgagag": 4021,
      "summoned": 4022,
      "phantasm": 4023,
      "Ġoptional": 4024,
      "Ġmementotlan": 4025,
      "Ġthrone": 4026,
      "allel": 4027,
      "nemleria": 4028,
      "inquished": 4029,
      "!?": 4030,
      "846": 4031,
      "8462": 4032,
      "asi": 4033,
      "ef": 4034,
      "eign": 4035,
      "great": 4036,
      "hort": 4037,
      "ios": 4038,
      "key": 4039,
      "lay": 4040,
      "lswarm": 4041,
      "mus": 4042,
      "ule": 4043,
      "vin": 4044,
      "vion": 4045,
      "ward": 4046,
      "yar": 4047,
      "zz": 4048,
      "zub": 4049,
      "ĠčĊ": 4050,
      "Ġpen": 4051,
      "Ġlyrilusc": 4052,
      "Ġti": 4053,
      "Ġcry": 4054,
      "Ġceremon": 4055,
      "any": 4056,
      "antic": 4057,
      "Ġthird": 4058,
      "ature": 4059,
      "isk": 4060,
      "inc": 4061,
      "increase": 4062,
      "Ġfer": 4063,
      "Ġfactor": 4064,
      "ria": 4065,
      "Ġbright": 4066,
      "Ġborrel": 4067,
      "Ġbamboo": 4068,
      "Ġcanvas": 4069,
      "Ġpor": 4070,
      "Ġpray": 4071,
      "amo": 4072,
      "Ġdel": 4073,
      "rage": 4074,
      "raken": 4075,
      "andra": 4076,
      "Ġgall": 4077,
      "Ġhammer": 4078,
      "suijin": 4079,
      "Ġinc": 4080,
      "reson": 4081,
      "Ġum": 4082,
      "Ġmach": 4083,
      "Ġmim": 4084,
      "Ġmelffy": 4085,
      "Ġluck": 4086,
      "Ġlaser": 4087,
      "Ġdecks": 4088,
      "que": 4089,
      "igator": 4090,
      "tray": 4091,
      "uption": 4092,
      "Ġexec": 4093,
      "Ġreven": 4094,
      "Ġreaper": 4095
    },
    "merges": [
      [
        "č",
        "Ċ"
      ],
      [
        "o",
        "n"
      ],
      [
        "Ġ",
        "t"
      ],
      [
        "a",
        "r"
      ],
      [
        "Ġ",
        "c"
      ],
      [
        "e",
        "r"
      ],
      [
        "a",
        "n"
      ],
      [
        "Ġt",
        "h"
      ],
      [
        "o",
        "u"
      ],
      [
        "ar",
        "d"
      ],
      [
        "m",
        "on"
      ],
      [
        "s",
        "t"
      ],
      [
        "y",
        "ou"
      ],
      [
        "Ġ",
        "you"
      ],
      [
        "a",
        "t"
      ],
      [
        "Ġ",
        "s"
      ],
      [
        "p",
        "e"
      ],
      [
        "d",
        "e"
      ],
      [
        "i",
        "s"
      ],
      [
        "e",
        "n"
      ],
      [
        "t",
        "y"
      ],
      [
        "st",
        "er"
      ],
      [
        "i",
        "n"
      ],
      [
        "Ġ",
        "mon"
      ],
      [
        "Ġmon",
        "ster"
      ],
      [
        "Ġ",
        "o"
      ],
      [
        "r",
        "o"
      ],
      [
        "Ġ",
        "f"
      ],
      [
        "r",
        "i"
      ],
      [
        "a",
        "c"
      ],
      [
        "Ġth",
        "e"
      ],
      [
        "a",
        "l"
      ],
      [
        "Ġ",
        "1"
      ],
      [
        "Ġ",
        "e"
      ],
      [
        "Ġc",
        "ard"
      ],
      [
        "c",
        "ard"
      ],
      [
        "at",
        "t"
      ],
      [
        "Ġyou",
        "r"
      ],
      [
        "e",
        "c"
      ],
      [
        "ty",
        "pe"
      ],
      [
        "Ġth",
        "is"
      ],
      [
        "t",
        "i"
      ],
      [
        "Ġ",
        "b"
      ],
      [
        "Ġc",
        "an"
      ],
      [
        "l",
        "e"
      ],
      [
        "s",
        "e"
      ],
      [
        "0",
        "0"
      ],
      [
        "ec",
        "t"
      ],
      [
        "f",
        "f"
      ],
      [
        "Ġ",
        "p"
      ],
      [
        "ff",
        "ect"
      ],
      [
        "Ġ",
        "d"
      ],
      [
        "m",
        "mon"
      ],
      [
        "a",
        "m"
      ],
      [
        "e",
        "l"
      ],
      [
        "Ġ",
        "i"
      ],
      [
        "r",
        "ar"
      ],
      [
        "Ġ",
        "\""
      ],
      [
        "u",
        "r"
      ],
      [
        "Ġ",
        "on"
      ],
      [
        "Ġ",
        "de"
      ],
      [
        "r",
        "a"
      ],
      [
        "Ġ",
        "a"
      ],
      [
        "ti",
        "on"
      ],
      [
        "Ġ",
        "w"
      ],
      [
        "Ġs",
        "u"
      ],
      [
        "an",
        "d"
      ],
      [
        "e",
        "d"
      ],
      [
        "Ġt",
        "o"
      ],
      [
        "Ġs",
        "pe"
      ],
      [
        "am",
        "e"
      ],
      [
        "Ġo",
        "f"
      ],
      [
        "Ġ",
        "g"
      ],
      [
        "o",
        "r"
      ],
      [
        "n",
        "ame"
      ],
      [
        "Ġsu",
        "mmon"
      ],
      [
        "s",
        "c"
      ],
      [
        "i",
        "ty"
      ],
      [
        "ri",
        "p"
      ],
      [
        "sc",
        "rip"
      ],
      [
        "scrip",
        "tion"
      ],
      [
        "<",
        "/"
      ],
      [
        "de",
        "scription"
      ],
      [
        "rar",
        "ity"
      ],
      [
        "en",
        "t"
      ],
      [
        "ac",
        "k"
      ],
      [
        "ur",
        "n"
      ],
      [
        "Ġe",
        "ffect"
      ],
      [
        "u",
        "t"
      ],
      [
        "Ġ",
        "h"
      ],
      [
        "Ġ",
        "le"
      ],
      [
        "ro",
        "m"
      ],
      [
        "att",
        "ack"
      ],
      [
        "g",
        "e"
      ],
      [
        "ï",
        "¼"
      ],
      [
        "ï¼",
        "ı"
      ],
      [
        "Ġt",
        "urn"
      ],
      [
        "s",
        "u"
      ],
      [
        "i",
        "al"
      ],
      [
        "Ġf",
        "rom"
      ],
      [
        "v",
        "el"
      ],
      [
        "c",
        "e"
      ],
      [
        "ri",
        "b"
      ],
      [
        "Ġle",
        "vel"
      ],
      [
        "su",
        "b"
      ],
      [
        "rib",
        "ut"
      ],
      [
        "Ġ",
        "in"
      ],
      [
        "in",
        "g"
      ],
      [
        "r",
        "e"
      ],
      [
        "Ġi",
        "f"
      ],
      [
        "ribut",
        "e"
      ],
      [
        "Ġc",
        "on"
      ],
      [
        "t",
        "h"
      ],
      [
        "f",
        "en"
      ],
      [
        "Ġ",
        "u"
      ],
      [
        "fen",
        "se"
      ],
      [
        "Ġ",
        "m"
      ],
      [
        "r",
        "an"
      ],
      [
        "Ġcon",
        "t"
      ],
      [
        "ran",
        "k"
      ],
      [
        "c",
        "k"
      ],
      [
        "Ġ",
        "is"
      ],
      [
        "c",
        "ial"
      ],
      [
        "Ġo",
        "r"
      ],
      [
        "Ġspe",
        "cial"
      ],
      [
        "p",
        "p"
      ],
      [
        "att",
        "ribute"
      ],
      [
        "ro",
        "l"
      ],
      [
        "Ġ",
        "n"
      ],
      [
        "Ġi",
        "t"
      ],
      [
        "Ġ",
        "2"
      ],
      [
        "Ġcont",
        "rol"
      ],
      [
        "de",
        "fense"
      ],
      [
        "Ġ",
        "["
      ],
      [
        "Ġo",
        "pp"
      ],
      [
        "on",
        "ent"
      ],
      [
        "Ġopp",
        "onent"
      ],
      [
        "l",
        "l"
      ],
      [
        "Ġf",
        "i"
      ],
      [
        "l",
        "y"
      ],
      [
        "e",
        "ffect"
      ],
      [
        "Ġ",
        "l"
      ],
      [
        "Ġp",
        "er"
      ],
      [
        "Ġh",
        "and"
      ],
      [
        "Ġmonster",
        "s"
      ],
      [
        "Ġg",
        "y"
      ],
      [
        "Ġc",
        "o"
      ],
      [
        "ge",
        "t"
      ],
      [
        "Ġ",
        "and"
      ],
      [
        "ar",
        "get"
      ],
      [
        "Ġt",
        "arget"
      ],
      [
        "Ġco",
        "mmon"
      ],
      [
        "Ġde",
        "ck"
      ],
      [
        "Ġon",
        "ce"
      ],
      [
        "Ġ",
        "rar"
      ],
      [
        "Ġon",
        "ly"
      ],
      [
        "Ġrar",
        "e"
      ],
      [
        "q",
        "u"
      ],
      [
        "ac",
        "h"
      ],
      [
        "Ġde",
        "st"
      ],
      [
        "el",
        "d"
      ],
      [
        "en",
        "d"
      ],
      [
        "ro",
        "y"
      ],
      [
        "Ġdest",
        "roy"
      ],
      [
        "Ġth",
        "at"
      ],
      [
        "Ġfi",
        "eld"
      ],
      [
        "Ġw",
        "h"
      ],
      [
        "'",
        "s"
      ],
      [
        "Ġspe",
        "ll"
      ],
      [
        "ac",
        "e"
      ],
      [
        "s",
        "i"
      ],
      [
        "v",
        "e"
      ],
      [
        "Ġb",
        "e"
      ],
      [
        "Ġb",
        "y"
      ],
      [
        "i",
        "g"
      ],
      [
        "o",
        "t"
      ],
      [
        "v",
        "at"
      ],
      [
        "Ġ",
        "ac"
      ],
      [
        "Ġsummon",
        "ed"
      ],
      [
        "Ġac",
        "ti"
      ],
      [
        "Ġacti",
        "vat"
      ],
      [
        "Ġf",
        "ace"
      ],
      [
        "t",
        "ra"
      ],
      [
        "Ġu",
        "se"
      ],
      [
        "ig",
        "h"
      ],
      [
        "Ġ",
        "at"
      ],
      [
        "u",
        "p"
      ],
      [
        "Ġ",
        "an"
      ],
      [
        "Ġe",
        "x"
      ],
      [
        "Ġb",
        "att"
      ],
      [
        "Ġ",
        "re"
      ],
      [
        "h",
        "a"
      ],
      [
        "Ġbatt",
        "le"
      ],
      [
        "i",
        "th"
      ],
      [
        "Ġ",
        "4"
      ],
      [
        "is",
        "h"
      ],
      [
        "Ġ",
        "3"
      ],
      [
        "Ġ",
        "("
      ],
      [
        "00",
        "0"
      ],
      [
        "ar",
        "k"
      ],
      [
        "qu",
        "i"
      ],
      [
        "ur",
        "ing"
      ],
      [
        "i",
        "c"
      ],
      [
        "igh",
        "t"
      ],
      [
        "n",
        "ot"
      ],
      [
        "Ġat",
        "k"
      ],
      [
        "Ġd",
        "uring"
      ],
      [
        "or",
        "m"
      ],
      [
        "Ġcan",
        "not"
      ],
      [
        "at",
        "er"
      ],
      [
        "Ġ",
        "al"
      ],
      [
        "Ġe",
        "ach"
      ],
      [
        "a",
        "in"
      ],
      [
        "Ġp",
        "o"
      ],
      [
        "Ġ",
        "attack"
      ],
      [
        "c",
        "h"
      ],
      [
        "an",
        "ish"
      ],
      [
        "Ġwh",
        "en"
      ],
      [
        "ra",
        "p"
      ],
      [
        "Ġb",
        "anish"
      ],
      [
        "am",
        "a"
      ],
      [
        "ra",
        "g"
      ],
      [
        "i",
        "r"
      ],
      [
        "Ġd",
        "ark"
      ],
      [
        "ha",
        "se"
      ],
      [
        "u",
        "m"
      ],
      [
        "Ġp",
        "hase"
      ],
      [
        "Ġw",
        "ith"
      ],
      [
        "u",
        "n"
      ],
      [
        "e",
        "s"
      ],
      [
        "rag",
        "on"
      ],
      [
        "ama",
        "ge"
      ],
      [
        "5",
        "00"
      ],
      [
        "Ġt",
        "rap"
      ],
      [
        "Ġd",
        "amage"
      ],
      [
        "orm",
        "al"
      ],
      [
        "Ġa",
        "s"
      ],
      [
        "Ġdestroy",
        "ed"
      ],
      [
        "Ġeffect",
        "s"
      ],
      [
        "Ġth",
        "en"
      ],
      [
        "p",
        "t"
      ],
      [
        "a",
        "y"
      ],
      [
        "o",
        "w"
      ],
      [
        "ce",
        "pt"
      ],
      [
        "Ġactivat",
        "e"
      ],
      [
        "p",
        "er"
      ],
      [
        "d",
        "d"
      ],
      [
        "Ġ",
        "st"
      ],
      [
        "o",
        "m"
      ],
      [
        "Ġf",
        "or"
      ],
      [
        "si",
        "on"
      ],
      [
        "Ġp",
        "l"
      ],
      [
        "Ġn",
        "ormal"
      ],
      [
        "Ġcard",
        "s"
      ],
      [
        "Ġg",
        "ra"
      ],
      [
        "a",
        "st"
      ],
      [
        "Ġ",
        "end"
      ],
      [
        "Ġd",
        "o"
      ],
      [
        "Ġl",
        "ight"
      ],
      [
        "Ġgra",
        "ve"
      ],
      [
        "Ġn",
        "e"
      ],
      [
        "y",
        "ard"
      ],
      [
        "x",
        "y"
      ],
      [
        "Ġgrave",
        "yard"
      ],
      [
        "Ġa",
        "dd"
      ],
      [
        "ar",
        "ri"
      ],
      [
        "a",
        "s"
      ],
      [
        "ar",
        "th"
      ],
      [
        "u",
        "sion"
      ],
      [
        "t",
        "er"
      ],
      [
        "Ġm",
        "ater"
      ],
      [
        "si",
        "tion"
      ],
      [
        "Ġpo",
        "sition"
      ],
      [
        "Ġmater",
        "ial"
      ],
      [
        "Ġcontrol",
        "s"
      ],
      [
        "xy",
        "z"
      ],
      [
        "Ġex",
        "cept"
      ],
      [
        "Ġd",
        "ragon"
      ],
      [
        "s",
        "o"
      ],
      [
        "b",
        "er"
      ],
      [
        "Ġe",
        "arth"
      ],
      [
        "arri",
        "or"
      ],
      [
        "8",
        "00"
      ],
      [
        "qui",
        "p"
      ],
      [
        "u",
        "l"
      ],
      [
        "Ġg",
        "ain"
      ],
      [
        "Ġe",
        "quip"
      ],
      [
        "Ġu",
        "n"
      ],
      [
        "i",
        "on"
      ],
      [
        "y",
        "n"
      ],
      [
        "Ġ",
        "0"
      ],
      [
        "Ġsu",
        "per"
      ],
      [
        "a",
        "d"
      ],
      [
        "Ġit",
        "s"
      ],
      [
        "Ġu",
        "l"
      ],
      [
        "Ġ",
        "z"
      ],
      [
        "in",
        "k"
      ],
      [
        "â",
        "Ĺ"
      ],
      [
        "âĹ",
        "ı"
      ],
      [
        "Ġ1",
        "000"
      ],
      [
        "Ġs",
        "end"
      ],
      [
        "Ġwh",
        "i"
      ],
      [
        "Ġul",
        "tra"
      ],
      [
        "yn",
        "ch"
      ],
      [
        "Ġs",
        "ent"
      ],
      [
        "ynch",
        "ro"
      ],
      [
        "un",
        "er"
      ],
      [
        "in",
        "e"
      ],
      [
        "Ġwhi",
        "le"
      ],
      [
        "a",
        "k"
      ],
      [
        ")",
        ":"
      ],
      [
        "th",
        "er"
      ],
      [
        "qui",
        "ck"
      ],
      [
        "Ġ",
        "-"
      ],
      [
        "Ġal",
        "l"
      ],
      [
        ".",
        "âĹı"
      ],
      [
        "Ġ",
        "ar"
      ],
      [
        "ri",
        "t"
      ],
      [
        "Ġ",
        "xyz"
      ],
      [
        "Ġ",
        "k"
      ],
      [
        "ou",
        "s"
      ],
      [
        "f",
        "l"
      ],
      [
        "w",
        "arrior"
      ],
      [
        "e",
        "t"
      ],
      [
        "an",
        "t"
      ],
      [
        "Ġf",
        "usion"
      ],
      [
        "Ġex",
        "tra"
      ],
      [
        "Ġbe",
        "ast"
      ],
      [
        "Ġal",
        "so"
      ],
      [
        "Ġde",
        "fense"
      ],
      [
        "Ġs",
        "ec"
      ],
      [
        "Ġc",
        "h"
      ],
      [
        "l",
        "d"
      ],
      [
        "s",
        "s"
      ],
      [
        "g",
        "at"
      ],
      [
        "ach",
        "ine"
      ],
      [
        "6",
        "00"
      ],
      [
        "Ġne",
        "gat"
      ],
      [
        "Ġl",
        "ink"
      ],
      [
        "ti",
        "l"
      ],
      [
        "pe",
        "n"
      ],
      [
        "o",
        "se"
      ],
      [
        "u",
        "al"
      ],
      [
        "Ġz",
        "on"
      ],
      [
        "re",
        "t"
      ],
      [
        "in",
        "d"
      ],
      [
        "Ġgain",
        "s"
      ],
      [
        "f",
        "i"
      ],
      [
        "qu",
        "al"
      ],
      [
        "Ġt",
        "ribute"
      ],
      [
        "Ġe",
        "qual"
      ],
      [
        "Ġsec",
        "ret"
      ],
      [
        "Ġ",
        "500"
      ],
      [
        "Ġun",
        "til"
      ],
      [
        "u",
        "st"
      ],
      [
        "a",
        "g"
      ],
      [
        "Ġ2",
        "000"
      ],
      [
        "2",
        "00"
      ],
      [
        "Ġs",
        "ynchro"
      ],
      [
        "Ġw",
        "ater"
      ],
      [
        "rit",
        "ual"
      ],
      [
        "Ġs",
        "h"
      ],
      [
        "a",
        "ve"
      ],
      [
        "Ġo",
        "ther"
      ],
      [
        "Ġfi",
        "re"
      ],
      [
        "in",
        "u"
      ],
      [
        "Ġ",
        "5"
      ],
      [
        "Ġcont",
        "inu"
      ],
      [
        "a",
        "ster"
      ],
      [
        "Ġcontinu",
        "ous"
      ],
      [
        "Ġzon",
        "e"
      ],
      [
        "um",
        "ber"
      ],
      [
        "ou",
        "n"
      ],
      [
        "i",
        "d"
      ],
      [
        "e",
        "p"
      ],
      [
        "i",
        "f"
      ],
      [
        "Ġm",
        "ain"
      ],
      [
        "ic",
        "t"
      ],
      [
        "ri",
        "g"
      ],
      [
        "ra",
        "w"
      ],
      [
        "Ġ",
        "7"
      ],
      [
        "pen",
        "d"
      ],
      [
        "fl",
        "ict"
      ],
      [
        "Ġin",
        "flict"
      ],
      [
        "i",
        "m"
      ],
      [
        "pe",
        "d"
      ],
      [
        "tra",
        "p"
      ],
      [
        "p",
        "l"
      ],
      [
        "Ġw",
        "ind"
      ],
      [
        "Ġd",
        "is"
      ],
      [
        "t",
        "uner"
      ],
      [
        "Ġnegat",
        "e"
      ],
      [
        "c",
        "l"
      ],
      [
        "ak",
        "e"
      ],
      [
        "fi",
        "end"
      ],
      [
        "ul",
        "um"
      ],
      [
        "pend",
        "ulum"
      ],
      [
        "\"",
        "."
      ],
      [
        "Ġ",
        "8"
      ],
      [
        "i",
        "t"
      ],
      [
        "o",
        "s"
      ],
      [
        "Ġb",
        "ec"
      ],
      [
        "Ġd",
        "raw"
      ],
      [
        "Ġ1",
        "500"
      ],
      [
        "Ġd",
        "i"
      ],
      [
        "m",
        "achine"
      ],
      [
        "Ġst",
        "ep"
      ],
      [
        "Ġpl",
        "ay"
      ],
      [
        "Ġn",
        "umber"
      ],
      [
        "Ġactivat",
        "ed"
      ],
      [
        "ow",
        "er"
      ],
      [
        "Ġ",
        "ritual"
      ],
      [
        "s",
        "pe"
      ],
      [
        "i",
        "p"
      ],
      [
        "Ġthe",
        "ir"
      ],
      [
        "Ġw",
        "as"
      ],
      [
        "Ġ",
        "r"
      ],
      [
        "Ġ",
        "name"
      ],
      [
        "Ġdis",
        "card"
      ],
      [
        "Ġre",
        "t"
      ],
      [
        "c",
        "aster"
      ],
      [
        "Ġret",
        "urn"
      ],
      [
        "b",
        "le"
      ],
      [
        "or",
        "e"
      ],
      [
        "4",
        "00"
      ],
      [
        "Ġb",
        "ut"
      ],
      [
        "Ġ",
        "+"
      ],
      [
        "o",
        "l"
      ],
      [
        "i",
        "l"
      ],
      [
        "u",
        "s"
      ],
      [
        "Ġ1",
        "200"
      ],
      [
        "re",
        "at"
      ],
      [
        "Ġbanish",
        "ed"
      ],
      [
        "er",
        "o"
      ],
      [
        "Ġ",
        "800"
      ],
      [
        "Ġequip",
        "ped"
      ],
      [
        "in",
        "al"
      ],
      [
        "Ġan",
        "y"
      ],
      [
        "or",
        "d"
      ],
      [
        "Ġ",
        "6"
      ],
      [
        "Ġn",
        "o"
      ],
      [
        "a",
        "ir"
      ],
      [
        "Ġbec",
        "om"
      ],
      [
        "Ġo",
        "rig"
      ],
      [
        "d",
        "ragon"
      ],
      [
        "e",
        "x"
      ],
      [
        "t",
        "o"
      ],
      [
        "oun",
        "ter"
      ],
      [
        "n",
        "ight"
      ],
      [
        "Ġorig",
        "inal"
      ],
      [
        "Ġplay",
        "er"
      ],
      [
        "Ġ1",
        "800"
      ],
      [
        "Ġl",
        "ower"
      ],
      [
        "at",
        "ion"
      ],
      [
        "Ġar",
        "e"
      ],
      [
        "b",
        "y"
      ],
      [
        "ith",
        "er"
      ],
      [
        "m",
        "ent"
      ],
      [
        "air",
        "y"
      ],
      [
        "i",
        "an"
      ],
      [
        "Ġf",
        "l"
      ],
      [
        "Ġ",
        "v"
      ],
      [
        "b",
        "e"
      ],
      [
        "Ġc",
        "ounter"
      ],
      [
        "spe",
        "ll"
      ],
      [
        "Ġch",
        "an"
      ],
      [
        "y",
        "ber"
      ],
      [
        "Ġpl",
        "ace"
      ],
      [
        "p",
        "h"
      ],
      [
        "i",
        "e"
      ],
      [
        "f",
        "ter"
      ],
      [
        "Ġm",
        "ore"
      ],
      [
        "t",
        "s"
      ],
      [
        "Ġre",
        "st"
      ],
      [
        "ff",
        "er"
      ],
      [
        "d",
        "er"
      ],
      [
        ")",
        "."
      ],
      [
        "u",
        "ff"
      ],
      [
        "Ġ3",
        "00"
      ],
      [
        "\"",
        ","
      ],
      [
        "Ġu",
        "p"
      ],
      [
        "Ġ",
        "rank"
      ],
      [
        "o",
        "ll"
      ],
      [
        "Ġdi",
        "ffer"
      ],
      [
        "Ġattack",
        "s"
      ],
      [
        "Ġde",
        "cl"
      ],
      [
        "Ġdecl",
        "ar"
      ],
      [
        "Ġm",
        "ust"
      ],
      [
        "spell",
        "caster"
      ],
      [
        "Ġ1",
        "600"
      ],
      [
        "Ġl",
        "p"
      ],
      [
        "de",
        "f"
      ],
      [
        "Ġs",
        "et"
      ],
      [
        "Ġn",
        "on"
      ],
      [
        "d",
        "ow"
      ],
      [
        "Ġh",
        "igh"
      ],
      [
        "Ġpo",
        "in"
      ],
      [
        "Ġt",
        "uner"
      ],
      [
        "Ġh",
        "ero"
      ],
      [
        "Ġ2",
        "500"
      ],
      [
        "Ġs",
        "ame"
      ],
      [
        "Ġ",
        "pendulum"
      ],
      [
        "be",
        "ast"
      ],
      [
        "Ġthe",
        "m"
      ],
      [
        "Ġin",
        "to"
      ],
      [
        "Ġpoin",
        "ts"
      ],
      [
        "9",
        "00"
      ],
      [
        "e",
        "ad"
      ],
      [
        "t",
        "ach"
      ],
      [
        "Ġa",
        "fter"
      ],
      [
        "Ġsh",
        "uff"
      ],
      [
        "Ġdiffer",
        "ent"
      ],
      [
        "Ġ1",
        "00"
      ],
      [
        "Ġde",
        "tach"
      ],
      [
        "Ġb",
        "l"
      ],
      [
        "f",
        "rom"
      ],
      [
        "Ġ2",
        "00"
      ],
      [
        "1",
        "00"
      ],
      [
        "Ġchan",
        "ge"
      ],
      [
        "a",
        "i"
      ],
      [
        "Ġde",
        "f"
      ],
      [
        "so",
        "l"
      ],
      [
        "f",
        "usion"
      ],
      [
        "e",
        "y"
      ],
      [
        "Ġw",
        "arrior"
      ],
      [
        "3",
        "00"
      ],
      [
        "Ġ",
        "quick"
      ],
      [
        "Ġt",
        "ribut"
      ],
      [
        "Ġh",
        "ave"
      ],
      [
        "Ġ3",
        "000"
      ],
      [
        "r",
        "y"
      ],
      [
        "Ġshuff",
        "le"
      ],
      [
        "r",
        "on"
      ],
      [
        "Ġhigh",
        "er"
      ],
      [
        "dow",
        "n"
      ],
      [
        "oll",
        "ow"
      ],
      [
        "Ġth",
        "an"
      ],
      [
        "Ġe",
        "ither"
      ],
      [
        "Ġbecom",
        "es"
      ],
      [
        "Ġf",
        "ollow"
      ],
      [
        "p",
        "i"
      ],
      [
        "v",
        "er"
      ],
      [
        "Ġactivat",
        "ion"
      ],
      [
        "ag",
        "ic"
      ],
      [
        "Ġfollow",
        "ing"
      ],
      [
        "Ġle",
        "ave"
      ],
      [
        "ou",
        "ld"
      ],
      [
        "w",
        "ing"
      ],
      [
        "ex",
        "cept"
      ],
      [
        "Ġt",
        "reat"
      ],
      [
        "f",
        "airy"
      ],
      [
        "om",
        "b"
      ],
      [
        "m",
        "o"
      ],
      [
        "s",
        "ing"
      ],
      [
        "Ġuse",
        "d"
      ],
      [
        "Ġleave",
        "s"
      ],
      [
        "Ġw",
        "ould"
      ],
      [
        "Ġb",
        "o"
      ],
      [
        "pl",
        "ay"
      ],
      [
        "n",
        "ormal"
      ],
      [
        "yber",
        "se"
      ],
      [
        "s",
        "ect"
      ],
      [
        "Ġc",
        "al"
      ],
      [
        "Ġu",
        "sing"
      ],
      [
        "ur",
        "r"
      ],
      [
        "Ġt",
        "ake"
      ],
      [
        "Ġin",
        "st"
      ],
      [
        "7",
        "00"
      ],
      [
        "Ġinst",
        "ead"
      ],
      [
        "Ġre",
        "sol"
      ],
      [
        "Ġk",
        "night"
      ],
      [
        "omb",
        "ie"
      ],
      [
        "b",
        "l"
      ],
      [
        "er",
        "e"
      ],
      [
        "an",
        "g"
      ],
      [
        "l",
        "ink"
      ],
      [
        "m",
        "at"
      ],
      [
        "Ġt",
        "im"
      ],
      [
        "s",
        "ynchro"
      ],
      [
        "Ġresol",
        "ve"
      ],
      [
        ".",
        ")"
      ],
      [
        "s",
        "y"
      ],
      [
        "Ġd",
        "ir"
      ],
      [
        "Ġto",
        "p"
      ],
      [
        "Ġtreat",
        "ed"
      ],
      [
        "Ġp",
        "r"
      ],
      [
        "Ġdir",
        "ect"
      ],
      [
        "Ġmaterial",
        "s"
      ],
      [
        "m",
        "a"
      ],
      [
        "th",
        "is"
      ],
      [
        "Ġ1",
        "400"
      ],
      [
        "le",
        "ment"
      ],
      [
        "or",
        "ld"
      ],
      [
        "a",
        "se"
      ],
      [
        "i",
        "st"
      ],
      [
        "k",
        "en"
      ],
      [
        "el",
        "l"
      ],
      [
        "Ġthe",
        "se"
      ],
      [
        "un",
        "der"
      ],
      [
        "at",
        "or"
      ],
      [
        "Ġs",
        "i"
      ],
      [
        "Ġn",
        "ot"
      ],
      [
        "Ġfl",
        "ip"
      ],
      [
        "ro",
        "ck"
      ],
      [
        "i",
        "ce"
      ],
      [
        "o",
        "k"
      ],
      [
        "w",
        "n"
      ],
      [
        "se",
        "t"
      ],
      [
        "Ġst",
        "ar"
      ],
      [
        "Ġ",
        "600"
      ],
      [
        "Ġh",
        "as"
      ],
      [
        "Ġ4",
        "00"
      ],
      [
        "Ġ2",
        "400"
      ],
      [
        "w",
        "h"
      ],
      [
        "Ġ",
        "&"
      ],
      [
        "ve",
        "al"
      ],
      [
        "Ġre",
        "veal"
      ],
      [
        "ey",
        "es"
      ],
      [
        "Ġm",
        "achine"
      ],
      [
        "Ġw",
        "ay"
      ],
      [
        "an",
        "c"
      ],
      [
        "Ġth",
        "ose"
      ],
      [
        "Ġs",
        "el"
      ],
      [
        "Ġa",
        "pp"
      ],
      [
        "Ġ",
        "j"
      ],
      [
        "m",
        "e"
      ],
      [
        "Ġto",
        "ken"
      ],
      [
        "Ġst",
        "and"
      ],
      [
        "lement",
        "al"
      ],
      [
        "Ġtim",
        "e"
      ],
      [
        "Ġs",
        "w"
      ],
      [
        "Ġthe",
        "y"
      ],
      [
        "d",
        "ark"
      ],
      [
        "c",
        "ul"
      ],
      [
        "o",
        "d"
      ],
      [
        "u",
        "e"
      ],
      [
        "Ġc",
        "urr"
      ],
      [
        "Ġs",
        "e"
      ],
      [
        "Ġcurr",
        "ent"
      ],
      [
        "Ġt",
        "y"
      ],
      [
        "Ġstand",
        "by"
      ],
      [
        "al",
        "l"
      ],
      [
        "Ġ1",
        "700"
      ],
      [
        "Ġm",
        "agic"
      ],
      [
        "Ġsel",
        "ect"
      ],
      [
        "Ġ1",
        "0"
      ],
      [
        "i",
        "a"
      ],
      [
        "Ġbattle",
        "s"
      ],
      [
        "t",
        "or"
      ],
      [
        "e",
        "m"
      ],
      [
        "Ġm",
        "ake"
      ],
      [
        "k",
        "i"
      ],
      [
        "Ġcal",
        "cul"
      ],
      [
        "h",
        "o"
      ],
      [
        "sy",
        "ch"
      ],
      [
        "Ġcalcul",
        "ation"
      ],
      [
        "i",
        "er"
      ],
      [
        "x",
        "t"
      ],
      [
        "Ġwh",
        "ose"
      ],
      [
        "Ġo",
        "wn"
      ],
      [
        "sych",
        "ic"
      ],
      [
        ")",
        ","
      ],
      [
        "qu",
        "a"
      ],
      [
        "Ġne",
        "xt"
      ],
      [
        "Ġresolve",
        "s"
      ],
      [
        "Ġdirect",
        "ly"
      ],
      [
        "on",
        "ce"
      ],
      [
        "Ġl",
        "ose"
      ],
      [
        "Ġ2",
        "800"
      ],
      [
        "Ġty",
        "pe"
      ],
      [
        "Ġ2",
        "100"
      ],
      [
        "Ġp",
        "ay"
      ],
      [
        "Ġactivat",
        "es"
      ],
      [
        "a",
        "v"
      ],
      [
        "ti",
        "le"
      ],
      [
        "a",
        "p"
      ],
      [
        "e",
        "ar"
      ],
      [
        "Ġk",
        "ing"
      ],
      [
        "Ġi",
        "m"
      ],
      [
        "Ġm",
        "an"
      ],
      [
        "s",
        "p"
      ],
      [
        "5",
        "0"
      ],
      [
        "ou",
        "l"
      ],
      [
        "Ġg",
        "o"
      ],
      [
        "t",
        "al"
      ],
      [
        "a",
        "ur"
      ],
      [
        "at",
        "in"
      ],
      [
        "Ġpo",
        "s"
      ],
      [
        "wing",
        "ed"
      ],
      [
        "Ġh",
        "al"
      ],
      [
        "Ġle",
        "ss"
      ],
      [
        "th",
        "e"
      ],
      [
        "atin",
        "um"
      ],
      [
        "Ġre",
        "mo"
      ],
      [
        "Ġpl",
        "atinum"
      ],
      [
        "Ġnegat",
        "ed"
      ],
      [
        "v",
        "ol"
      ],
      [
        "Ġ",
        "attribute"
      ],
      [
        "n",
        "e"
      ],
      [
        "p",
        "tile"
      ],
      [
        "Ġp",
        "h"
      ],
      [
        "Ġdestroy",
        "s"
      ],
      [
        "Ġtribut",
        "ing"
      ],
      [
        "if",
        "e"
      ],
      [
        "s",
        "h"
      ],
      [
        "Ġs",
        "p"
      ],
      [
        "Ġ1",
        "900"
      ],
      [
        "Ġw",
        "orld"
      ],
      [
        "i",
        "k"
      ],
      [
        "u",
        "d"
      ],
      [
        "c",
        "re"
      ],
      [
        "Ġtarget",
        "ed"
      ],
      [
        "Ġs",
        "k"
      ],
      [
        "z",
        "e"
      ],
      [
        "Ġdeclar",
        "es"
      ],
      [
        "Ġpr",
        "is"
      ],
      [
        "f",
        "orm"
      ],
      [
        "Ġs",
        "am"
      ],
      [
        "Ġfi",
        "end"
      ],
      [
        "m",
        "ed"
      ],
      [
        "Ġfi",
        "r"
      ],
      [
        "Ġname",
        "s"
      ],
      [
        "Ġ",
        "ra"
      ],
      [
        "Ġ2",
        "200"
      ],
      [
        "pl",
        "ant"
      ],
      [
        "f",
        "er"
      ],
      [
        "b",
        "o"
      ],
      [
        "cre",
        "ase"
      ],
      [
        "Ġs",
        "er"
      ],
      [
        "Ġl",
        "ife"
      ],
      [
        "m",
        "an"
      ],
      [
        "Ġfir",
        "st"
      ],
      [
        "c",
        "yberse"
      ],
      [
        "e",
        "st"
      ],
      [
        "ro",
        "r"
      ],
      [
        "Ġsam",
        "ur"
      ],
      [
        "o",
        "ther"
      ],
      [
        "\"",
        ";"
      ],
      [
        "Ġlevel",
        "s"
      ],
      [
        "Ġsamur",
        "ai"
      ],
      [
        "Ġapp",
        "ly"
      ],
      [
        "l",
        "er"
      ],
      [
        "m",
        "or"
      ],
      [
        "Ġsi",
        "de"
      ],
      [
        "Ġ",
        "en"
      ],
      [
        "ac",
        "t"
      ],
      [
        "Ġbecom",
        "e"
      ],
      [
        "i",
        "ll"
      ],
      [
        "Ġ1",
        "300"
      ],
      [
        "Ġ7",
        "00"
      ],
      [
        "Ġs",
        "c"
      ],
      [
        "n",
        "o"
      ],
      [
        "Ġ",
        "att"
      ],
      [
        "Ġw",
        "ing"
      ],
      [
        "as",
        "h"
      ],
      [
        "Ġc",
        "ha"
      ],
      [
        "le",
        "vel"
      ],
      [
        "Ġpl",
        "ant"
      ],
      [
        "r",
        "ed"
      ],
      [
        "at",
        "k"
      ],
      [
        "os",
        "aur"
      ],
      [
        "Ġcurrent",
        "ly"
      ],
      [
        "Ġ",
        "x"
      ],
      [
        "Ġtarget",
        "s"
      ],
      [
        "el",
        "y"
      ],
      [
        "t",
        "e"
      ],
      [
        "v",
        "en"
      ],
      [
        "Ġ",
        "qu"
      ],
      [
        "Ġin",
        "sect"
      ],
      [
        "Ġm",
        "e"
      ],
      [
        "e",
        "lemental"
      ],
      [
        "g",
        "o"
      ],
      [
        "mat",
        "ic"
      ],
      [
        "a",
        "qua"
      ],
      [
        "Ġmonsters",
        "once"
      ],
      [
        "Ġpris",
        "matic"
      ],
      [
        "i",
        "ent"
      ],
      [
        "tion",
        "s"
      ],
      [
        "Ġan",
        "other"
      ],
      [
        "es",
        "s"
      ],
      [
        "Ġtribut",
        "ed"
      ],
      [
        "Ġbo",
        "th"
      ],
      [
        "Ġ2",
        "300"
      ],
      [
        "Ġmonsters",
        "if"
      ],
      [
        "Ġmagic",
        "ian"
      ],
      [
        "by",
        "ss"
      ],
      [
        "m",
        "er"
      ],
      [
        "Ġatt",
        "ach"
      ],
      [
        "in",
        "sect"
      ],
      [
        "Ġsw",
        "ord"
      ],
      [
        "z",
        "ombie"
      ],
      [
        "in",
        "osaur"
      ],
      [
        "Ġ2",
        "600"
      ],
      [
        "Ġman",
        "y"
      ],
      [
        "v",
        "ing"
      ],
      [
        "Ġ",
        "9"
      ],
      [
        "Ġ",
        "ro"
      ],
      [
        "it",
        "ch"
      ],
      [
        "Ġm",
        "o"
      ],
      [
        "Ġz",
        "ombie"
      ],
      [
        "pi",
        "rit"
      ],
      [
        "wh",
        "en"
      ],
      [
        "a",
        "de"
      ],
      [
        "Ġspell",
        "s"
      ],
      [
        "ad",
        "i"
      ],
      [
        "ry",
        "st"
      ],
      [
        "Ġth",
        "ere"
      ],
      [
        "Ġto",
        "tal"
      ],
      [
        "ri",
        "ck"
      ],
      [
        "or",
        "n"
      ],
      [
        "Ġin",
        "crease"
      ],
      [
        "u",
        "c"
      ],
      [
        "Ġspell",
        "caster"
      ],
      [
        "se",
        "s"
      ],
      [
        "h",
        "er"
      ],
      [
        "Ġown",
        "er"
      ],
      [
        "Ġc",
        "yberse"
      ],
      [
        "i",
        "ck"
      ],
      [
        "Ġ",
        "900"
      ],
      [
        "y",
        "r"
      ],
      [
        "de",
        "n"
      ],
      [
        "Ġf",
        "airy"
      ],
      [
        "Ġdeclar",
        "e"
      ],
      [
        "Ġs",
        "o"
      ],
      [
        "i",
        "z"
      ],
      [
        "le",
        "ss"
      ],
      [
        "m",
        "ust"
      ],
      [
        "y",
        "ro"
      ],
      [
        "at",
        "e"
      ],
      [
        "h",
        "t"
      ],
      [
        "Ġbl",
        "ack"
      ],
      [
        "a",
        "b"
      ],
      [
        "v",
        "il"
      ],
      [
        "ffect",
        "ed"
      ],
      [
        "Ġph",
        "ant"
      ],
      [
        "v",
        "ed"
      ],
      [
        "Ġch",
        "o"
      ],
      [
        "a",
        "u"
      ],
      [
        "u",
        "b"
      ],
      [
        "ot",
        "t"
      ],
      [
        "u",
        "ri"
      ],
      [
        "a",
        "ffected"
      ],
      [
        "Ġm",
        "en"
      ],
      [
        "Ġco",
        "m"
      ],
      [
        "i",
        "at"
      ],
      [
        "k",
        "night"
      ],
      [
        "s",
        "w"
      ],
      [
        "al",
        "e"
      ],
      [
        "fi",
        "re"
      ],
      [
        "h",
        "e"
      ],
      [
        "Ġin",
        "cl"
      ],
      [
        "Ġl",
        "o"
      ],
      [
        "ott",
        "om"
      ],
      [
        "de",
        "d"
      ],
      [
        "Ġa",
        "d"
      ],
      [
        "Ġcounter",
        "s"
      ],
      [
        "l",
        "ight"
      ],
      [
        "st",
        "ar"
      ],
      [
        "l",
        "adi"
      ],
      [
        "on",
        "d"
      ],
      [
        "Ġs",
        "oul"
      ],
      [
        "Ġremo",
        "ve"
      ],
      [
        "ou",
        "t"
      ],
      [
        "ri",
        "k"
      ],
      [
        "ud",
        "ing"
      ],
      [
        "ladi",
        "ator"
      ],
      [
        "a",
        "ge"
      ],
      [
        "p",
        "sychic"
      ],
      [
        "ou",
        "ble"
      ],
      [
        "Ġb",
        "ottom"
      ],
      [
        "Ġc",
        "l"
      ],
      [
        "ce",
        "ss"
      ],
      [
        "Ġ1",
        "100"
      ],
      [
        "med",
        "iat"
      ],
      [
        "mediat",
        "ely"
      ],
      [
        ";",
        "âĹı"
      ],
      [
        "Ġun",
        "affected"
      ],
      [
        "ap",
        "al"
      ],
      [
        "r",
        "ac"
      ],
      [
        "Ġattack",
        "ing"
      ],
      [
        "form",
        "apal"
      ],
      [
        "s",
        "a"
      ],
      [
        "Ġt",
        "ak"
      ],
      [
        "Ġinflict",
        "s"
      ],
      [
        "Ġr",
        "ed"
      ],
      [
        "Ġwing",
        "ed"
      ],
      [
        "Ġne",
        "ither"
      ],
      [
        "fl",
        "ip"
      ],
      [
        "Ġcon",
        "d"
      ],
      [
        "Ġim",
        "mediately"
      ],
      [
        "Ġs",
        "pirit"
      ],
      [
        "Ġth",
        "under"
      ],
      [
        "Ġsummon",
        "s"
      ],
      [
        "rol",
        "l"
      ],
      [
        "oun",
        "d"
      ],
      [
        "ur",
        "e"
      ],
      [
        "Ġt",
        "w"
      ],
      [
        "in",
        "a"
      ],
      [
        "Ġincl",
        "uding"
      ],
      [
        "u",
        "ard"
      ],
      [
        "c",
        "an"
      ],
      [
        "pen",
        "t"
      ],
      [
        ".",
        "\""
      ],
      [
        "Ġlose",
        "s"
      ],
      [
        "i",
        "ous"
      ],
      [
        "u",
        "ll"
      ],
      [
        "in",
        "ed"
      ],
      [
        "al",
        "a"
      ],
      [
        "al",
        "am"
      ],
      [
        "Ġd",
        "ouble"
      ],
      [
        "Ġon",
        "e"
      ],
      [
        "si",
        "ble"
      ],
      [
        "Ġser",
        "pent"
      ],
      [
        "g",
        "en"
      ],
      [
        "Ġ",
        "y"
      ],
      [
        "c",
        "a"
      ],
      [
        "o",
        "g"
      ],
      [
        "Ġ",
        "rock"
      ],
      [
        "in",
        "y"
      ],
      [
        "Ġpos",
        "sible"
      ],
      [
        "l",
        "ord"
      ],
      [
        "Ġin",
        "vol"
      ],
      [
        "bl",
        "ack"
      ],
      [
        "ar",
        "y"
      ],
      [
        "re",
        "ptile"
      ],
      [
        "f",
        "or"
      ],
      [
        "Ġzon",
        "es"
      ],
      [
        "n",
        "i"
      ],
      [
        "Ġl",
        "ord"
      ],
      [
        "Ġinvol",
        "ving"
      ],
      [
        "ryst",
        "al"
      ],
      [
        "Ġphant",
        "om"
      ],
      [
        "Ġstar",
        "t"
      ],
      [
        "f",
        "ish"
      ],
      [
        "de",
        "st"
      ],
      [
        "in",
        "cess"
      ],
      [
        "Ġmonsters",
        "you"
      ],
      [
        "in",
        "j"
      ],
      [
        "ent",
        "ur"
      ],
      [
        "Ġwhi",
        "te"
      ],
      [
        "en",
        "ce"
      ],
      [
        "Ġh",
        "e"
      ],
      [
        "Ġm",
        "ir"
      ],
      [
        "m",
        "ar"
      ],
      [
        "it",
        "e"
      ],
      [
        "m",
        "s"
      ],
      [
        "Ġg",
        "ear"
      ],
      [
        "th",
        "under"
      ],
      [
        "ad",
        "y"
      ],
      [
        "ho",
        "st"
      ],
      [
        "ca",
        "vat"
      ],
      [
        "e",
        "en"
      ],
      [
        "t",
        "ron"
      ],
      [
        "Ġle",
        "g"
      ],
      [
        "Ġex",
        "cavat"
      ],
      [
        "Ġattack",
        "ed"
      ],
      [
        "rap",
        "tor"
      ],
      [
        "Ġhal",
        "f"
      ],
      [
        "ang",
        "reat"
      ],
      [
        "alam",
        "angreat"
      ],
      [
        "w",
        "er"
      ],
      [
        "ti",
        "c"
      ],
      [
        "a",
        "z"
      ],
      [
        "c",
        "o"
      ],
      [
        "u",
        "g"
      ],
      [
        "Ġp",
        "sychic"
      ],
      [
        "Ġcha",
        "in"
      ],
      [
        "w",
        "ay"
      ],
      [
        "n",
        "umber"
      ],
      [
        "Ġar",
        "ch"
      ],
      [
        "j",
        "in"
      ],
      [
        "m",
        "y"
      ],
      [
        "s",
        "k"
      ],
      [
        "is",
        "e"
      ],
      [
        "Ġa",
        "byss"
      ],
      [
        "su",
        "per"
      ],
      [
        "anc",
        "ient"
      ],
      [
        "yr",
        "m"
      ],
      [
        "Ġg",
        "en"
      ],
      [
        "arri",
        "er"
      ],
      [
        "Ġtak",
        "es"
      ],
      [
        "c",
        "ing"
      ],
      [
        "Ġst",
        "rik"
      ],
      [
        "rig",
        "ht"
      ],
      [
        "v",
        "al"
      ],
      [
        "Ġ",
        "?"
      ],
      [
        "ala",
        "xy"
      ],
      [
        "l",
        "ing"
      ],
      [
        "p",
        "yro"
      ],
      [
        "Ġf",
        "ish"
      ],
      [
        "m",
        "agic"
      ],
      [
        "an",
        "ce"
      ],
      [
        "Ġp",
        "ri"
      ],
      [
        "Ġp",
        "ier"
      ],
      [
        "g",
        "ladiator"
      ],
      [
        "ro",
        "id"
      ],
      [
        "Ġsend",
        "s"
      ],
      [
        "Ġsk",
        "y"
      ],
      [
        "au",
        "se"
      ],
      [
        "Ġpier",
        "cing"
      ],
      [
        "av",
        "y"
      ],
      [
        "e",
        "arth"
      ],
      [
        "l",
        "i"
      ],
      [
        "Ġbanish",
        "ing"
      ],
      [
        "Ġbec",
        "ause"
      ],
      [
        "Ġe",
        "y"
      ],
      [
        "Ġp",
        "ro"
      ],
      [
        "Ġsec",
        "ond"
      ],
      [
        "Ġpos",
        "ses"
      ],
      [
        "k",
        "e"
      ],
      [
        "on",
        "e"
      ],
      [
        "re",
        "am"
      ],
      [
        "and",
        "om"
      ],
      [
        "Ġco",
        "l"
      ],
      [
        "Ġtoken",
        "s"
      ],
      [
        "Ġse",
        "a"
      ],
      [
        "Ġmen",
        "tions"
      ],
      [
        "er",
        "a"
      ],
      [
        "id",
        "raptor"
      ],
      [
        "Ġr",
        "andom"
      ],
      [
        "Ġe",
        "lemental"
      ],
      [
        "no",
        "ble"
      ],
      [
        "Ġcho",
        "ose"
      ],
      [
        "Ġmir",
        "ror"
      ],
      [
        "ar",
        "ch"
      ],
      [
        "Ġex",
        "act"
      ],
      [
        "w",
        "orld"
      ],
      [
        "a",
        "w"
      ],
      [
        "Ġfl",
        "ame"
      ],
      [
        "Ġflip",
        "ped"
      ],
      [
        "Ġexact",
        "ly"
      ],
      [
        "a",
        "ble"
      ],
      [
        "f",
        "ul"
      ],
      [
        "Ġb",
        "arrier"
      ],
      [
        "Ġd",
        "u"
      ],
      [
        "Ġcom",
        "b"
      ],
      [
        "in",
        "i"
      ],
      [
        "Ġre",
        "ptile"
      ],
      [
        "k",
        "o"
      ],
      [
        "Ġpo",
        "wer"
      ],
      [
        "d",
        "uring"
      ],
      [
        "Ġi",
        "g"
      ],
      [
        "g",
        "h"
      ],
      [
        "et",
        "al"
      ],
      [
        "ld",
        "ier"
      ],
      [
        "g",
        "ed"
      ],
      [
        "j",
        "u"
      ],
      [
        "d",
        "inosaur"
      ],
      [
        "g",
        "er"
      ],
      [
        "Ġs",
        "ha"
      ],
      [
        "Ġg",
        "uard"
      ],
      [
        "Ġsummon",
        "ing"
      ],
      [
        "a",
        "il"
      ],
      [
        "Ġm",
        "ag"
      ],
      [
        "id",
        "er"
      ],
      [
        "Ġso",
        "ldier"
      ],
      [
        "l",
        "t"
      ],
      [
        "Ġdeclar",
        "ed"
      ],
      [
        "c",
        "yber"
      ],
      [
        "way",
        "s"
      ],
      [
        "Ġposses",
        "sion"
      ],
      [
        "1",
        "3"
      ],
      [
        "k",
        "et"
      ],
      [
        "Ġm",
        "y"
      ],
      [
        "Ġal",
        "ways"
      ],
      [
        "ch",
        "e"
      ],
      [
        "inj",
        "a"
      ],
      [
        "m",
        "ag"
      ],
      [
        "e",
        "ven"
      ],
      [
        "w",
        "ind"
      ],
      [
        "ar",
        "p"
      ],
      [
        "Ġl",
        "ady"
      ],
      [
        "k",
        "a"
      ],
      [
        "p",
        "re"
      ],
      [
        "pe",
        "t"
      ],
      [
        "Ġe",
        "m"
      ],
      [
        "ot",
        "on"
      ],
      [
        "Ġ4",
        "000"
      ],
      [
        "Ġfor",
        "ce"
      ],
      [
        "he",
        "avy"
      ],
      [
        "Ġw",
        "ere"
      ],
      [
        "um",
        "n"
      ],
      [
        "z",
        "on"
      ],
      [
        "ec",
        "h"
      ],
      [
        "Ġgo",
        "ld"
      ],
      [
        "s",
        "alamangreat"
      ],
      [
        "Ġh",
        "i"
      ],
      [
        "ul",
        "t"
      ],
      [
        "Ġcomb",
        "ined"
      ],
      [
        "i",
        "le"
      ],
      [
        "t",
        "w"
      ],
      [
        "ge",
        "m"
      ],
      [
        "ic",
        "al"
      ],
      [
        "Ġcol",
        "umn"
      ],
      [
        "on",
        "g"
      ],
      [
        "Ġi",
        "ce"
      ],
      [
        "ain",
        "s"
      ],
      [
        "un",
        "k"
      ],
      [
        "Ġsi",
        "x"
      ],
      [
        "i",
        "tion"
      ],
      [
        "ro",
        "z"
      ],
      [
        "ut",
        "o"
      ],
      [
        "Ġsword",
        "s"
      ],
      [
        "b",
        "att"
      ],
      [
        "y",
        "l"
      ],
      [
        "Ġ1",
        "2"
      ],
      [
        "Ġd",
        "inosaur"
      ],
      [
        "Ġg",
        "r"
      ],
      [
        "re",
        "ad"
      ],
      [
        "Ġm",
        "aster"
      ],
      [
        "\"",
        ":"
      ],
      [
        "p",
        "o"
      ],
      [
        "ran",
        "s"
      ],
      [
        "Ġ2",
        "700"
      ],
      [
        "Ġsend",
        "ing"
      ],
      [
        "Ġ",
        "am"
      ],
      [
        "Ġp",
        "at"
      ],
      [
        "Ġarch",
        "fiend"
      ],
      [
        "y",
        "s"
      ],
      [
        "ar",
        "m"
      ],
      [
        "le",
        "s"
      ],
      [
        "Ġmonsters",
        "when"
      ],
      [
        "Ġre",
        "su"
      ],
      [
        "trap",
        "s"
      ],
      [
        "os",
        "en"
      ],
      [
        "b",
        "u"
      ],
      [
        "h",
        "ero"
      ],
      [
        "v",
        "a"
      ],
      [
        "Ġg",
        "i"
      ],
      [
        "Ġan",
        "g"
      ],
      [
        "Ġlo",
        "ok"
      ],
      [
        "ama",
        "zon"
      ],
      [
        "Ġwith",
        "out"
      ],
      [
        "anc",
        "er"
      ],
      [
        "e",
        "at"
      ],
      [
        "rick",
        "star"
      ],
      [
        "black",
        "wing"
      ],
      [
        "r",
        "ing"
      ],
      [
        "or",
        "ing"
      ],
      [
        "Ġchan",
        "ged"
      ],
      [
        "Ġig",
        "n"
      ],
      [
        "i",
        "tions"
      ],
      [
        "in",
        "fer"
      ],
      [
        "¿",
        "½"
      ],
      [
        "ï",
        "¿½"
      ],
      [
        "Ġe",
        "l"
      ],
      [
        "Ġa",
        "bo"
      ],
      [
        "Ġcond",
        "itions"
      ],
      [
        "Ġey",
        "e"
      ],
      [
        "Ġabo",
        "ve"
      ],
      [
        "c",
        "er"
      ],
      [
        "Ġf",
        "orm"
      ],
      [
        "rag",
        "un"
      ],
      [
        "amazon",
        "ess"
      ],
      [
        "k",
        "roz"
      ],
      [
        "w",
        "itch"
      ],
      [
        "le",
        "m"
      ],
      [
        "se",
        "a"
      ],
      [
        "se",
        "d"
      ],
      [
        "ra",
        "idraptor"
      ],
      [
        "or",
        "ph"
      ],
      [
        "Ġm",
        "ar"
      ],
      [
        "Ġre",
        "m"
      ],
      [
        "ir",
        "d"
      ],
      [
        "Ġk",
        "o"
      ],
      [
        "f",
        "ur"
      ],
      [
        "Ġb",
        "ase"
      ],
      [
        "Ġh",
        "is"
      ],
      [
        "Ġm",
        "a"
      ],
      [
        "up",
        "pet"
      ],
      [
        "per",
        "formapal"
      ],
      [
        "Ġign",
        "oring"
      ],
      [
        "e",
        "vil"
      ],
      [
        "o",
        "ck"
      ],
      [
        "Ġdo",
        "es"
      ],
      [
        "ac",
        "y"
      ],
      [
        "Ġe",
        "vil"
      ],
      [
        "Ġh",
        "er"
      ],
      [
        "Ġun",
        "less"
      ],
      [
        "all",
        "en"
      ],
      [
        "Ġresu",
        "lt"
      ],
      [
        "ragun",
        "ity"
      ],
      [
        "c",
        "ha"
      ],
      [
        "e",
        "per"
      ],
      [
        "t",
        "arget"
      ],
      [
        "Ġbattle",
        "d"
      ],
      [
        "host",
        "rick"
      ],
      [
        "r",
        "uc"
      ],
      [
        "mon",
        "ster"
      ],
      [
        "Ġa",
        "g"
      ],
      [
        "ic",
        "a"
      ],
      [
        "g",
        "alaxy"
      ],
      [
        "Ġo",
        "ver"
      ],
      [
        "Ġor",
        "der"
      ],
      [
        "Ġadd",
        "ition"
      ],
      [
        "Ġselect",
        "ed"
      ],
      [
        "i",
        "x"
      ],
      [
        "p",
        "ha"
      ],
      [
        "v",
        "ine"
      ],
      [
        "urn",
        "ing"
      ],
      [
        "pi",
        "a"
      ],
      [
        "bl",
        "ue"
      ],
      [
        "uri",
        "a"
      ],
      [
        "+",
        ":"
      ],
      [
        "c",
        "ient"
      ],
      [
        "d",
        "in"
      ],
      [
        "p",
        "ri"
      ],
      [
        "w",
        "yrm"
      ],
      [
        "z",
        "o"
      ],
      [
        "ti",
        "mat"
      ],
      [
        "Ġg",
        "em"
      ],
      [
        "Ġan",
        "cient"
      ],
      [
        "ir",
        "u"
      ],
      [
        "Ġne",
        "os"
      ],
      [
        "Ġar",
        "mor"
      ],
      [
        "Ġdu",
        "el"
      ],
      [
        "a",
        "byss"
      ],
      [
        "Ġc",
        "reat"
      ],
      [
        "al",
        "y"
      ],
      [
        "Ġp",
        "ar"
      ],
      [
        "ed",
        "roid"
      ],
      [
        "si",
        "x"
      ],
      [
        "dd",
        "oll"
      ],
      [
        "ag",
        "a"
      ],
      [
        "dest",
        "iny"
      ],
      [
        "Ġa",
        "qua"
      ],
      [
        "d",
        "o"
      ],
      [
        "Ġp",
        "uppet"
      ],
      [
        "ge",
        "ist"
      ],
      [
        "eat",
        "her"
      ],
      [
        "you",
        "r"
      ],
      [
        "Ġtrap",
        "s"
      ],
      [
        "Ġcha",
        "os"
      ],
      [
        "Ġleg",
        "acy"
      ],
      [
        "c",
        "on"
      ],
      [
        "s",
        "ha"
      ],
      [
        "Ġ",
        "roll"
      ],
      [
        "Ġt",
        "r"
      ],
      [
        "Ġh",
        "o"
      ],
      [
        "ir",
        "l"
      ],
      [
        "Ġme",
        "iru"
      ],
      [
        "timat",
        "e"
      ],
      [
        "ou",
        "ki"
      ],
      [
        "Ġd",
        "rac"
      ],
      [
        "am",
        "p"
      ],
      [
        "Ġfor",
        "est"
      ],
      [
        "Ġsh",
        "i"
      ],
      [
        "Ġgo",
        "lem"
      ],
      [
        "Ġremo",
        "ved"
      ],
      [
        "b",
        "ound"
      ],
      [
        "Ġs",
        "l"
      ],
      [
        "Ġper",
        "formapal"
      ],
      [
        "ter",
        "geist"
      ],
      [
        "ad",
        "ol"
      ],
      [
        "Ġcal",
        "l"
      ],
      [
        "sw",
        "orn"
      ],
      [
        "is",
        "s"
      ],
      [
        "bl",
        "in"
      ],
      [
        "av",
        "al"
      ],
      [
        "adol",
        "che"
      ],
      [
        "al",
        "d"
      ],
      [
        "Ġp",
        "re"
      ],
      [
        "Ġsu",
        "n"
      ],
      [
        "Ġin",
        "fer"
      ],
      [
        "ic",
        "h"
      ],
      [
        "Ġch",
        "ar"
      ],
      [
        "ang",
        "er"
      ],
      [
        "ma",
        "id"
      ],
      [
        "sa",
        "ult"
      ],
      [
        "Ġstrik",
        "er"
      ],
      [
        "Ġang",
        "el"
      ],
      [
        "Ġbase",
        "d"
      ],
      [
        "Ġs",
        "n"
      ],
      [
        "Ġh",
        "ad"
      ],
      [
        "me",
        "k"
      ],
      [
        "Ġexcavat",
        "e"
      ],
      [
        "arp",
        "ie"
      ],
      [
        "c",
        "ra"
      ],
      [
        "r",
        "us"
      ],
      [
        "Ġcontrol",
        "ler"
      ],
      [
        "Ġphase",
        "s"
      ],
      [
        "k",
        "er"
      ],
      [
        "l",
        "ant"
      ],
      [
        "v",
        "i"
      ],
      [
        "Ġc",
        "entur"
      ],
      [
        "Ġg",
        "l"
      ],
      [
        "Ġfi",
        "st"
      ],
      [
        "ig",
        "ni"
      ],
      [
        "Ġar",
        "ms"
      ],
      [
        "Ġbo",
        "x"
      ],
      [
        "t",
        "ri"
      ],
      [
        "ar",
        "c"
      ],
      [
        "Ġc",
        "rystal"
      ],
      [
        "Ġplayer",
        "s"
      ],
      [
        "Ġknight",
        "s"
      ],
      [
        "Ġhal",
        "ved"
      ],
      [
        "iz",
        "ation"
      ],
      [
        "able",
        "d"
      ],
      [
        "i",
        "ac"
      ],
      [
        "le",
        "d"
      ],
      [
        "Ġqu",
        "een"
      ],
      [
        "for",
        "ce"
      ],
      [
        "c",
        "rystal"
      ],
      [
        "Ġt",
        "ri"
      ],
      [
        "Ġc",
        "yber"
      ],
      [
        "Ġs",
        "il"
      ],
      [
        "ec",
        "ha"
      ],
      [
        "Ġ2",
        "900"
      ],
      [
        "Ġdiscard",
        "ed"
      ],
      [
        "Ġbl",
        "ue"
      ],
      [
        "ne",
        "o"
      ],
      [
        "rans",
        "fer"
      ],
      [
        "f",
        "o"
      ],
      [
        "p",
        "le"
      ],
      [
        "u",
        "rib"
      ],
      [
        "re",
        "ak"
      ],
      [
        "si",
        "l"
      ],
      [
        "ve",
        "s"
      ],
      [
        "Ġv",
        "o"
      ],
      [
        "Ġwarrior",
        "s"
      ],
      [
        "igni",
        "ster"
      ],
      [
        "v",
        "an"
      ],
      [
        "Ġ",
        "pe"
      ],
      [
        "Ġre",
        "sp"
      ],
      [
        "ark",
        "night"
      ],
      [
        "ell",
        "arknight"
      ],
      [
        "Ġsk",
        "ull"
      ],
      [
        "mor",
        "ph"
      ],
      [
        "Ġattach",
        "ed"
      ],
      [
        "i",
        "es"
      ],
      [
        "i",
        "us"
      ],
      [
        "m",
        "in"
      ],
      [
        "t",
        "rickstar"
      ],
      [
        "on",
        "se"
      ],
      [
        "al",
        "ight"
      ],
      [
        "Ġi",
        "ll"
      ],
      [
        "Ġre",
        "b"
      ],
      [
        "un",
        "alight"
      ],
      [
        "ell",
        "ar"
      ],
      [
        "Ġway",
        "s"
      ],
      [
        "Ġcond",
        "uc"
      ],
      [
        "Ġtw",
        "ice"
      ],
      [
        "Ġresp",
        "onse"
      ],
      [
        "n",
        "a"
      ],
      [
        "ar",
        "e"
      ],
      [
        "en",
        "sion"
      ],
      [
        "in",
        "o"
      ],
      [
        "Ġa",
        "vat"
      ],
      [
        "un",
        "e"
      ],
      [
        "wh",
        "ile"
      ],
      [
        "ash",
        "i"
      ],
      [
        "Ġswords",
        "man"
      ],
      [
        "Ġavat",
        "ar"
      ],
      [
        "n",
        "on"
      ],
      [
        "u",
        "ster"
      ],
      [
        "Ġc",
        "ore"
      ],
      [
        "at",
        "uria"
      ],
      [
        "ra",
        "in"
      ],
      [
        "ly",
        "mer"
      ],
      [
        "im",
        "m"
      ],
      [
        "spe",
        "cial"
      ],
      [
        "pi",
        "re"
      ],
      [
        "Ġqu",
        "ar"
      ],
      [
        "tron",
        "ic"
      ],
      [
        "ruc",
        "tion"
      ],
      [
        "v",
        "is"
      ],
      [
        "Ġh",
        "ead"
      ],
      [
        "Ġst",
        "ill"
      ],
      [
        "bo",
        "ok"
      ],
      [
        "Ġsha",
        "dow"
      ],
      [
        "lymer",
        "ization"
      ],
      [
        "4",
        "6"
      ],
      [
        "er",
        "s"
      ],
      [
        "Ġl",
        "i"
      ],
      [
        "Ġl",
        "v"
      ],
      [
        "Ġl",
        "ist"
      ],
      [
        "Ġco",
        "in"
      ],
      [
        "Ġst",
        "e"
      ],
      [
        "Ġhi",
        "re"
      ],
      [
        "s",
        "on"
      ],
      [
        "ar",
        "i"
      ],
      [
        "Ġc",
        "ro"
      ],
      [
        "er",
        "y"
      ],
      [
        "st",
        "ellar"
      ],
      [
        "Ġwh",
        "o"
      ],
      [
        "id",
        "den"
      ],
      [
        "Ġad",
        "ded"
      ],
      [
        "imm",
        "ick"
      ],
      [
        "g",
        "ra"
      ],
      [
        "l",
        "in"
      ],
      [
        "n",
        "ity"
      ],
      [
        "at",
        "ing"
      ],
      [
        "el",
        "od"
      ],
      [
        "re",
        "ss"
      ],
      [
        "qu",
        "ish"
      ],
      [
        "end",
        "read"
      ],
      [
        "ir",
        "t"
      ],
      [
        "ow",
        "n"
      ],
      [
        "Ġen",
        "ti"
      ],
      [
        "mar",
        "incess"
      ],
      [
        "n",
        "ess"
      ],
      [
        "sc",
        "ue"
      ],
      [
        "Ġreveal",
        "ed"
      ],
      [
        "Ġmagic",
        "al"
      ],
      [
        "Ġim",
        "p"
      ],
      [
        "Ġqu",
        "ant"
      ],
      [
        "sa",
        "ber"
      ],
      [
        "pre",
        "me"
      ],
      [
        "!",
        "\""
      ],
      [
        "u",
        "ce"
      ],
      [
        "Ġc",
        "at"
      ],
      [
        "om",
        "aly"
      ],
      [
        "oun",
        "t"
      ],
      [
        "ron",
        "omaly"
      ],
      [
        "super",
        "heavy"
      ],
      [
        "Ġpat",
        "roll"
      ],
      [
        "cra",
        "fter"
      ],
      [
        "o",
        "h"
      ],
      [
        "w",
        "ise"
      ],
      [
        "ac",
        "ian"
      ],
      [
        "Ġg",
        "re"
      ],
      [
        "Ġh",
        "y"
      ],
      [
        "Ġm",
        "etal"
      ],
      [
        "ynch",
        "ron"
      ],
      [
        "ry",
        "tron"
      ],
      [
        "ear",
        "t"
      ],
      [
        "Ġmonster",
        "st"
      ],
      [
        "Ġo",
        "g"
      ],
      [
        "Ġe",
        "ven"
      ],
      [
        "am",
        "ent"
      ],
      [
        "am",
        "pire"
      ],
      [
        "Ġn",
        "ight"
      ],
      [
        "Ġother",
        "wise"
      ],
      [
        "Ġpr",
        "ed"
      ],
      [
        "ma",
        "x"
      ],
      [
        "uto",
        "pia"
      ],
      [
        "po",
        "lymerization"
      ],
      [
        "Ġconduc",
        "t"
      ],
      [
        ")",
        ";"
      ],
      [
        "g",
        "hostrick"
      ],
      [
        "on",
        "ic"
      ],
      [
        "Ġh",
        "or"
      ],
      [
        "ul",
        "er"
      ],
      [
        "id",
        "s"
      ],
      [
        "Ġdraw",
        "s"
      ],
      [
        "Ġr",
        "ec"
      ],
      [
        "me",
        "ment"
      ],
      [
        "sp",
        "acian"
      ],
      [
        "ne",
        "kroz"
      ],
      [
        "ub",
        "ic"
      ],
      [
        "Ġcentur",
        "y"
      ],
      [
        "Ġquar",
        "ter"
      ],
      [
        "elod",
        "ious"
      ],
      [
        "ro",
        "o"
      ],
      [
        "al",
        "mon"
      ],
      [
        "Ġto",
        "ss"
      ],
      [
        "Ġdest",
        "iny"
      ],
      [
        "Ġac",
        "tor"
      ],
      [
        "Ġsh",
        "ark"
      ],
      [
        "spe",
        "edroid"
      ],
      [
        "ai",
        "a"
      ],
      [
        "Ġro",
        "se"
      ],
      [
        "Ġexcavat",
        "ed"
      ],
      [
        "Ġill",
        "usion"
      ],
      [
        "c",
        "le"
      ],
      [
        "g",
        "ouki"
      ],
      [
        "h",
        "is"
      ],
      [
        "m",
        "al"
      ],
      [
        "s",
        "m"
      ],
      [
        "t",
        "r"
      ],
      [
        "al",
        "tergeist"
      ],
      [
        "Ġar",
        "t"
      ],
      [
        "Ġreturn",
        "ed"
      ],
      [
        "ol",
        "den"
      ],
      [
        "mat",
        "ik"
      ],
      [
        "era",
        "ider"
      ],
      [
        "Ġguard",
        "ian"
      ],
      [
        "a",
        "dd"
      ],
      [
        "b",
        "ut"
      ],
      [
        "u",
        "i"
      ],
      [
        "Ġt",
        "er"
      ],
      [
        "ar",
        "t"
      ],
      [
        "an",
        "s"
      ],
      [
        "ou",
        "r"
      ],
      [
        "Ġcard",
        "ian"
      ],
      [
        "Ġa",
        "b"
      ],
      [
        "ut",
        "ant"
      ],
      [
        "ay",
        "ak"
      ],
      [
        "Ġun",
        "ion"
      ],
      [
        "mar",
        "e"
      ],
      [
        "ke",
        "eper"
      ],
      [
        "Ġform",
        "ation"
      ],
      [
        "ayak",
        "ashi"
      ],
      [
        "a",
        "pp"
      ],
      [
        "d",
        "ragunity"
      ],
      [
        "f",
        "in"
      ],
      [
        "â",
        "ĺ"
      ],
      [
        "Ġs",
        "anc"
      ],
      [
        "Ġcan",
        "non"
      ],
      [
        "re",
        "st"
      ],
      [
        "ord",
        "ic"
      ],
      [
        "ma",
        "il"
      ],
      [
        "ist",
        "us"
      ],
      [
        "Ġen",
        "em"
      ],
      [
        "sk",
        "y"
      ],
      [
        "g",
        "u"
      ],
      [
        "k",
        "ids"
      ],
      [
        "ec",
        "ro"
      ],
      [
        "Ġn",
        "inja"
      ],
      [
        "Ġmonsterst",
        "his"
      ],
      [
        "f",
        "ic"
      ],
      [
        "g",
        "a"
      ],
      [
        "k",
        "y"
      ],
      [
        "k",
        "ing"
      ],
      [
        "ar",
        "a"
      ],
      [
        "Ġmonster",
        "must"
      ],
      [
        "sc",
        "rap"
      ],
      [
        "Ġm",
        "us"
      ],
      [
        "Ġdest",
        "ruction"
      ],
      [
        "Ġbanish",
        "ment"
      ],
      [
        "Ġfor",
        "t"
      ],
      [
        "im",
        "ension"
      ],
      [
        "it",
        "s"
      ],
      [
        "Ġv",
        "al"
      ],
      [
        "ie",
        "f"
      ],
      [
        "Ġdiffer",
        "ence"
      ],
      [
        "ryst",
        "ron"
      ],
      [
        "Ġko",
        "a"
      ],
      [
        "sha",
        "ddoll"
      ],
      [
        ")",
        "\""
      ],
      [
        "d",
        "ream"
      ],
      [
        "m",
        "adolche"
      ],
      [
        "at",
        "h"
      ],
      [
        "Ġb",
        "ur"
      ],
      [
        "Ġd",
        "ri"
      ],
      [
        "ur",
        "s"
      ],
      [
        "ut",
        "e"
      ],
      [
        "Ġl",
        "ong"
      ],
      [
        "ir",
        "on"
      ],
      [
        "Ġhal",
        "ve"
      ],
      [
        "Ġpri",
        "de"
      ],
      [
        "o",
        "si"
      ],
      [
        "r",
        "el"
      ],
      [
        "Ġmonster",
        "if"
      ],
      [
        "Ġg",
        "irl"
      ],
      [
        "Ġm",
        "as"
      ],
      [
        "ad",
        "er"
      ],
      [
        "Ġr",
        "uler"
      ],
      [
        "Ġsw",
        "itch"
      ],
      [
        "sw",
        "arm"
      ],
      [
        "a",
        "ph"
      ],
      [
        "u",
        "tion"
      ],
      [
        "Ġs",
        "ar"
      ],
      [
        "Ġw",
        "i"
      ],
      [
        "Ġw",
        "eather"
      ],
      [
        "or",
        "t"
      ],
      [
        "Ġle",
        "ast"
      ],
      [
        "Ġz",
        "ing"
      ],
      [
        "Ġph",
        "oton"
      ],
      [
        "right",
        "fur"
      ],
      [
        "Ġenti",
        "re"
      ],
      [
        "8",
        "50"
      ],
      [
        "h",
        "arpie"
      ],
      [
        "n",
        "al"
      ],
      [
        "v",
        "ant"
      ],
      [
        "ri",
        "e"
      ],
      [
        "Ġw",
        "itch"
      ],
      [
        "th",
        "ys"
      ],
      [
        "ter",
        "ror"
      ],
      [
        "yn",
        "th"
      ],
      [
        "Ġul",
        "timate"
      ],
      [
        "ust",
        "o"
      ],
      [
        "Ġdi",
        "e"
      ],
      [
        "ver",
        "y"
      ],
      [
        "sh",
        "i"
      ],
      [
        "f",
        "ro"
      ],
      [
        "f",
        "allen"
      ],
      [
        "l",
        "unalight"
      ],
      [
        "o",
        "dd"
      ],
      [
        "Ġd",
        "ream"
      ],
      [
        "Ġg",
        "ate"
      ],
      [
        "Ġl",
        "a"
      ],
      [
        "ach",
        "ina"
      ],
      [
        "ish",
        "ki"
      ],
      [
        "Ġal",
        "b"
      ],
      [
        "es",
        "is"
      ],
      [
        "Ġdo",
        "g"
      ],
      [
        "sh",
        "ip"
      ],
      [
        "Ġvo",
        "ice"
      ],
      [
        "Ġsanc",
        "t"
      ],
      [
        "m",
        "etal"
      ],
      [
        "n",
        "inja"
      ],
      [
        "t",
        "le"
      ],
      [
        "Ġb",
        "urning"
      ],
      [
        "Ġto",
        "on"
      ],
      [
        "Ġ3",
        "500"
      ],
      [
        "ay",
        "er"
      ],
      [
        "fl",
        "ower"
      ],
      [
        "to",
        "on"
      ],
      [
        "Ġpr",
        "incess"
      ],
      [
        "Ġapp",
        "ro"
      ],
      [
        "Ġj",
        "ust"
      ],
      [
        "Ġser",
        "vant"
      ],
      [
        "Ġblack",
        "wing"
      ],
      [
        "f",
        "ach"
      ],
      [
        "n",
        "et"
      ],
      [
        "w",
        "ater"
      ],
      [
        "Ġ",
        "ri"
      ],
      [
        "Ġc",
        "ur"
      ],
      [
        "ard",
        "ust"
      ],
      [
        "ri",
        "x"
      ],
      [
        "re",
        "s"
      ],
      [
        "Ġtarget",
        "ing"
      ],
      [
        "go",
        "go"
      ],
      [
        "Ġcho",
        "ice"
      ],
      [
        "bu",
        "jin"
      ],
      [
        "Ġbox",
        "er"
      ],
      [
        "arc",
        "tic"
      ],
      [
        "almon",
        "ica"
      ],
      [
        "urs",
        "arctic"
      ],
      [
        "fach",
        "ord"
      ],
      [
        "c",
        "ust"
      ],
      [
        "i",
        "ed"
      ],
      [
        "k",
        "ket"
      ],
      [
        "v",
        "o"
      ],
      [
        "Ġt",
        "al"
      ],
      [
        "en",
        "ix"
      ],
      [
        "Ġ1",
        "850"
      ],
      [
        "Ġw",
        "yrm"
      ],
      [
        "re",
        "e"
      ],
      [
        "Ġm",
        "et"
      ],
      [
        "it",
        "su"
      ],
      [
        "us",
        "h"
      ],
      [
        "osen",
        "ju"
      ],
      [
        "Ġgem",
        "ini"
      ],
      [
        "c",
        "ounter"
      ],
      [
        "n",
        "ing"
      ],
      [
        "v",
        "endread"
      ],
      [
        "ar",
        "ak"
      ],
      [
        "de",
        "s"
      ],
      [
        "in",
        "ing"
      ],
      [
        "Ġb",
        "ird"
      ],
      [
        "Ġdo",
        "om"
      ],
      [
        "Ġdi",
        "vine"
      ],
      [
        "ph",
        "oton"
      ],
      [
        "gen",
        "ex"
      ],
      [
        "pri",
        "ate"
      ],
      [
        "osi",
        "ster"
      ],
      [
        "Ġappro",
        "priate"
      ],
      [
        "b",
        "ot"
      ],
      [
        "u",
        "ary"
      ],
      [
        "ec",
        "l"
      ],
      [
        "ec",
        "tion"
      ],
      [
        "Ġm",
        "er"
      ],
      [
        "Ġst",
        "orm"
      ],
      [
        "as",
        "s"
      ],
      [
        "ag",
        "aga"
      ],
      [
        "Ġno",
        "ble"
      ],
      [
        "ze",
        "k"
      ],
      [
        "no",
        "id"
      ],
      [
        "yr",
        "al"
      ],
      [
        "light",
        "sworn"
      ],
      [
        "Ġred",
        "uce"
      ],
      [
        "witch",
        "crafter"
      ],
      [
        "ament",
        "s"
      ],
      [
        "matik",
        "a"
      ],
      [
        "Ġmus",
        "ket"
      ],
      [
        "Ġsanct",
        "uary"
      ],
      [
        "d",
        "og"
      ],
      [
        "e",
        "le"
      ],
      [
        "i",
        "ra"
      ],
      [
        "p",
        "red"
      ],
      [
        "t",
        "en"
      ],
      [
        "ou",
        "d"
      ],
      [
        "le",
        "y"
      ],
      [
        "ect",
        "or"
      ],
      [
        "rom",
        "ancer"
      ],
      [
        "Ġl",
        "ast"
      ],
      [
        "Ġun",
        "der"
      ],
      [
        "uff",
        "al"
      ],
      [
        "ai",
        "ju"
      ],
      [
        "Ġmen",
        "tion"
      ],
      [
        "Ġrem",
        "ains"
      ],
      [
        "roo",
        "per"
      ],
      [
        "arak",
        "uri"
      ],
      [
        "a",
        "plant"
      ],
      [
        "an",
        "not"
      ],
      [
        "ur",
        "ug"
      ],
      [
        "ce",
        "ed"
      ],
      [
        "ran",
        "ui"
      ],
      [
        "Ġmonsters",
        "during"
      ],
      [
        "Ġas",
        "h"
      ],
      [
        "per",
        "or"
      ],
      [
        "ph",
        "ant"
      ],
      [
        "earth",
        "bound"
      ],
      [
        "ring",
        "ans"
      ],
      [
        "din",
        "om"
      ],
      [
        "urib",
        "oh"
      ],
      [
        "urug",
        "i"
      ],
      [
        "2",
        "3"
      ],
      [
        "d",
        "rac"
      ],
      [
        "g",
        "ains"
      ],
      [
        "l",
        "aments"
      ],
      [
        "m",
        "echa"
      ],
      [
        "s",
        "pirit"
      ],
      [
        "Ġs",
        "a"
      ],
      [
        "Ġmonster",
        "sc"
      ],
      [
        "Ġ1",
        "1"
      ],
      [
        "Ġg",
        "alaxy"
      ],
      [
        "re",
        "scue"
      ],
      [
        "ran",
        "ded"
      ],
      [
        "Ġdark",
        "ness"
      ],
      [
        "Ġr",
        "y"
      ],
      [
        "spell",
        "book"
      ],
      [
        "urr",
        "ely"
      ],
      [
        "ang",
        "le"
      ],
      [
        "ear",
        "laments"
      ],
      [
        "Ġmy",
        "st"
      ],
      [
        "unk",
        "an"
      ],
      [
        "irt",
        "ual"
      ],
      [
        "its",
        "urugi"
      ],
      [
        "zek",
        "tor"
      ],
      [
        "b",
        "idden"
      ],
      [
        "g",
        "y"
      ],
      [
        "g",
        "al"
      ],
      [
        "l",
        "o"
      ],
      [
        "p",
        "rank"
      ],
      [
        "en",
        "ed"
      ],
      [
        "Ġf",
        "ur"
      ],
      [
        "Ġb",
        "ack"
      ],
      [
        "Ġp",
        "yro"
      ],
      [
        "and",
        "er"
      ],
      [
        "si",
        "ded"
      ],
      [
        "Ġequal",
        "s"
      ],
      [
        "Ġbl",
        "ade"
      ],
      [
        "Ġtim",
        "es"
      ],
      [
        "od",
        "iac"
      ],
      [
        "Ġem",
        "peror"
      ],
      [
        "Ġgr",
        "and"
      ],
      [
        "Ġgi",
        "ant"
      ],
      [
        "ï¿½",
        "ï¿½"
      ],
      [
        "cha",
        "ined"
      ],
      [
        "Ġalb",
        "az"
      ],
      [
        "j",
        "ama"
      ],
      [
        "s",
        "oul"
      ],
      [
        "z",
        "mo"
      ],
      [
        "Ġb",
        "u"
      ],
      [
        "Ġd",
        "imension"
      ],
      [
        "Ġsu",
        "b"
      ],
      [
        "or",
        "y"
      ],
      [
        "end",
        "ary"
      ],
      [
        "om",
        "e"
      ],
      [
        "ik",
        "ey"
      ],
      [
        "magic",
        "al"
      ],
      [
        "fo",
        "es"
      ],
      [
        "d",
        "i"
      ],
      [
        "d",
        "anger"
      ],
      [
        "g",
        "immick"
      ],
      [
        "Ġt",
        "em"
      ],
      [
        "Ġo",
        "dd"
      ],
      [
        "ro",
        "kket"
      ],
      [
        "ti",
        "me"
      ],
      [
        "Ġb",
        "ar"
      ],
      [
        "Ġd",
        "rag"
      ],
      [
        "Ġde",
        "pend"
      ],
      [
        "Ġw",
        "ar"
      ],
      [
        "or",
        "g"
      ],
      [
        "Ġm",
        "u"
      ],
      [
        "Ġgy",
        "s"
      ],
      [
        "Ġre",
        "qui"
      ],
      [
        "ow",
        "rest"
      ],
      [
        "Ġr",
        "ating"
      ],
      [
        "form",
        "age"
      ],
      [
        "ale",
        "fic"
      ],
      [
        "dest",
        "roy"
      ],
      [
        "Ġpro",
        "t"
      ],
      [
        "Ġbur",
        "st"
      ],
      [
        "Ġmonstersc",
        "annot"
      ],
      [
        "owrest",
        "ler"
      ],
      [
        "b",
        "romancer"
      ],
      [
        "f",
        "ore"
      ],
      [
        "r",
        "en"
      ],
      [
        "t",
        "ransfer"
      ],
      [
        "Ġ",
        "ace"
      ],
      [
        "ar",
        "ecl"
      ],
      [
        "an",
        "ko"
      ],
      [
        "ro",
        "ther"
      ],
      [
        "Ġe",
        "very"
      ],
      [
        "Ġb",
        "ig"
      ],
      [
        "Ġg",
        "ladiator"
      ],
      [
        "Ġbe",
        "tw"
      ],
      [
        "Ġstar",
        "light"
      ],
      [
        "Ġtype",
        "s"
      ],
      [
        "ik",
        "anko"
      ],
      [
        "Ġmo",
        "on"
      ],
      [
        "ab",
        "r"
      ],
      [
        "arecl",
        "aw"
      ],
      [
        "Ġbetw",
        "een"
      ],
      [
        "d",
        "ual"
      ],
      [
        "d",
        "rytron"
      ],
      [
        "f",
        "abled"
      ],
      [
        "g",
        "ht"
      ],
      [
        "Ġc",
        "a"
      ],
      [
        "Ġth",
        "ief"
      ],
      [
        "ac",
        "red"
      ],
      [
        "al",
        "ice"
      ],
      [
        "su",
        "n"
      ],
      [
        "Ġmonsters",
        "must"
      ],
      [
        "Ġre",
        "son"
      ],
      [
        "as",
        "p"
      ],
      [
        "Ġsc",
        "ale"
      ],
      [
        "ash",
        "ti"
      ],
      [
        "Ġtw",
        "in"
      ],
      [
        "my",
        "utant"
      ],
      [
        "morph",
        "tronic"
      ],
      [
        "f",
        "ra"
      ],
      [
        "i",
        "en"
      ],
      [
        "l",
        "an"
      ],
      [
        "m",
        "ech"
      ],
      [
        "y",
        "m"
      ],
      [
        "Ġc",
        "or"
      ],
      [
        "Ġs",
        "ynchron"
      ],
      [
        "Ġp",
        "ho"
      ],
      [
        "ed",
        "ge"
      ],
      [
        "Ġm",
        "ist"
      ],
      [
        "qu",
        "ence"
      ],
      [
        "Ġbe",
        "fore"
      ],
      [
        "ig",
        "er"
      ],
      [
        "Ġex",
        "ceed"
      ],
      [
        "as",
        "sault"
      ],
      [
        "ad",
        "v"
      ],
      [
        "Ġshuff",
        "ling"
      ],
      [
        "ver",
        "n"
      ],
      [
        "Ġse",
        "quence"
      ],
      [
        "Ġattribute",
        "s"
      ],
      [
        "Ġsp",
        "o"
      ],
      [
        "go",
        "ld"
      ],
      [
        "Ġdrac",
        "o"
      ],
      [
        "mement",
        "o"
      ],
      [
        "c",
        "rystron"
      ],
      [
        "g",
        "us"
      ],
      [
        "i",
        "um"
      ],
      [
        "j",
        "ade"
      ],
      [
        "Ġmon",
        "arch"
      ],
      [
        "Ġw",
        "ill"
      ],
      [
        "Ġto",
        "r"
      ],
      [
        "Ġg",
        "host"
      ],
      [
        "Ġh",
        "un"
      ],
      [
        "Ġin",
        "v"
      ],
      [
        "ay",
        "lant"
      ],
      [
        "ad",
        "ia"
      ],
      [
        "im",
        "e"
      ],
      [
        "pl",
        "under"
      ],
      [
        "Ġgo",
        "blin"
      ],
      [
        "Ġro",
        "w"
      ],
      [
        "vis",
        "as"
      ],
      [
        "Ġlist",
        "ed"
      ],
      [
        "Ġenem",
        "ies"
      ],
      [
        "ky",
        "rie"
      ],
      [
        "Ġdepend",
        "ing"
      ],
      [
        "aylant",
        "z"
      ],
      [
        "Ġs",
        "ol"
      ],
      [
        "Ġg",
        "olden"
      ],
      [
        "ch",
        "ronomaly"
      ],
      [
        "um",
        "my"
      ],
      [
        "ad",
        "get"
      ],
      [
        "Ġz",
        "e"
      ],
      [
        "rig",
        "ade"
      ],
      [
        "raw",
        "ler"
      ],
      [
        "dragon",
        "maid"
      ],
      [
        "mor",
        "tal"
      ],
      [
        "mer",
        "mail"
      ],
      [
        "sw",
        "ord"
      ],
      [
        "rus",
        "adia"
      ],
      [
        "ashti",
        "ra"
      ],
      [
        "Ġpho",
        "enix"
      ],
      [
        "l",
        "a"
      ],
      [
        "s",
        "er"
      ],
      [
        "t",
        "ed"
      ],
      [
        "v",
        "ent"
      ],
      [
        "w",
        "ar"
      ],
      [
        "Ġ",
        "er"
      ],
      [
        "Ġt",
        "ur"
      ],
      [
        "mon",
        "g"
      ],
      [
        "at",
        "ic"
      ],
      [
        "is",
        "on"
      ],
      [
        "Ġb",
        "a"
      ],
      [
        "Ġm",
        "ul"
      ],
      [
        "Ġcontrol",
        "led"
      ],
      [
        "ad",
        "ic"
      ],
      [
        "Ġtribute",
        "s"
      ],
      [
        "il",
        "s"
      ],
      [
        "Ġv",
        "ol"
      ],
      [
        "Ġbl",
        "ast"
      ],
      [
        "urr",
        "ac"
      ],
      [
        "ma",
        "ge"
      ],
      [
        "orph",
        "ia"
      ],
      [
        "con",
        "stellar"
      ],
      [
        "abr",
        "ynth"
      ],
      [
        "c",
        "ter"
      ],
      [
        "f",
        "r"
      ],
      [
        "f",
        "rightfur"
      ],
      [
        "l",
        "u"
      ],
      [
        "Ġ",
        "@"
      ],
      [
        "st",
        "e"
      ],
      [
        "un",
        "ick"
      ],
      [
        "ther",
        "ion"
      ],
      [
        "Ġr",
        "el"
      ],
      [
        "wh",
        "ite"
      ],
      [
        "Ġim",
        "mortal"
      ],
      [
        "vol",
        "ution"
      ],
      [
        "iz",
        "ard"
      ],
      [
        "can",
        "not"
      ],
      [
        "Ġchoose",
        "s"
      ],
      [
        "tw",
        "in"
      ],
      [
        "gem",
        "ini"
      ],
      [
        "Ġher",
        "ald"
      ],
      [
        "Ġag",
        "ent"
      ],
      [
        "fro",
        "st"
      ],
      [
        ".",
        "ï¿½ï¿½"
      ],
      [
        "1",
        "0"
      ],
      [
        "b",
        "it"
      ],
      [
        "b",
        "rigade"
      ],
      [
        "h",
        "i"
      ],
      [
        "l",
        "ian"
      ],
      [
        "m",
        "aster"
      ],
      [
        "r",
        "ack"
      ],
      [
        "r",
        "act"
      ],
      [
        "s",
        "end"
      ],
      [
        "y",
        "osenju"
      ],
      [
        "Ġt",
        "ied"
      ],
      [
        "at",
        "ch"
      ],
      [
        "Ġd",
        "in"
      ],
      [
        "Ġl",
        "and"
      ],
      [
        "igh",
        "oul"
      ],
      [
        "ch",
        "an"
      ],
      [
        "un",
        "ion"
      ],
      [
        "im",
        "ighoul"
      ],
      [
        "\".",
        ")"
      ],
      [
        "ex",
        "osister"
      ],
      [
        "sol",
        "fachord"
      ],
      [
        "pi",
        "ritual"
      ],
      [
        "Ġstar",
        "frost"
      ],
      [
        "Ġdouble",
        "d"
      ],
      [
        "co",
        "de"
      ],
      [
        "van",
        "quish"
      ],
      [
        "lian",
        "cer"
      ],
      [
        ":",
        "âĹı"
      ],
      [
        "c",
        "entur"
      ],
      [
        "j",
        "es"
      ],
      [
        "m",
        "et"
      ],
      [
        "p",
        "urrely"
      ],
      [
        "Ġt",
        "en"
      ],
      [
        "Ġc",
        "ri"
      ],
      [
        "ou",
        "vel"
      ],
      [
        "pe",
        "cter"
      ],
      [
        "en",
        "ing"
      ],
      [
        "in",
        "ful"
      ],
      [
        "Ġi",
        "ron"
      ],
      [
        "ur",
        "a"
      ],
      [
        "Ġto",
        "ok"
      ],
      [
        "Ġm",
        "orph"
      ],
      [
        "Ġm",
        "ayakashi"
      ],
      [
        "Ġfi",
        "gh"
      ],
      [
        "Ġbe",
        "ing"
      ],
      [
        "Ġbatt",
        "ling"
      ],
      [
        "Ġpl",
        "ac"
      ],
      [
        "Ġar",
        "med"
      ],
      [
        "ind",
        "angle"
      ],
      [
        "Ġhigh",
        "est"
      ],
      [
        "link",
        "ed"
      ],
      [
        "ho",
        "od"
      ],
      [
        "Ġra",
        "in"
      ],
      [
        "Ġphant",
        "as"
      ],
      [
        "co",
        "pha"
      ],
      [
        "batt",
        "le"
      ],
      [
        "yl",
        "on"
      ],
      [
        "Ġel",
        "ect"
      ],
      [
        "Ġshi",
        "eld"
      ],
      [
        "Ġsn",
        "ake"
      ],
      [
        "Ġsar",
        "copha"
      ],
      [
        "rother",
        "hood"
      ],
      [
        "Ġspo",
        "ils"
      ],
      [
        "jes",
        "pecter"
      ],
      [
        "Ġsarcopha",
        "gus"
      ],
      [
        "c",
        "ip"
      ],
      [
        "e",
        "quip"
      ],
      [
        "g",
        "unkan"
      ],
      [
        "m",
        "achina"
      ],
      [
        "n",
        "ar"
      ],
      [
        "r",
        "u"
      ],
      [
        "Ġc",
        "ity"
      ],
      [
        "at",
        "o"
      ],
      [
        "Ġb",
        "reak"
      ],
      [
        "Ġd",
        "a"
      ],
      [
        "Ġa",
        "mong"
      ],
      [
        "Ġg",
        "od"
      ],
      [
        "Ġm",
        "ech"
      ],
      [
        "Ġcont",
        "ract"
      ],
      [
        "Ġwh",
        "ich"
      ],
      [
        "Ġsuper",
        "heavy"
      ],
      [
        "rit",
        "e"
      ],
      [
        "et",
        "rooper"
      ],
      [
        "pen",
        "gu"
      ],
      [
        "os",
        "sil"
      ],
      [
        "Ġreturn",
        "s"
      ],
      [
        "ol",
        "f"
      ],
      [
        "Ġv",
        "en"
      ],
      [
        "Ġbo",
        "ss"
      ],
      [
        "sp",
        "yral"
      ],
      [
        "ze",
        "al"
      ],
      [
        "go",
        "blin"
      ],
      [
        "arch",
        "fiend"
      ],
      [
        "batt",
        "lin"
      ],
      [
        "infer",
        "noid"
      ],
      [
        "Ġcreat",
        "ure"
      ],
      [
        "b",
        "ow"
      ],
      [
        "d",
        "on"
      ],
      [
        "f",
        "t"
      ],
      [
        "n",
        "aturia"
      ],
      [
        "Ġ",
        "out"
      ],
      [
        "Ġc",
        "ubic"
      ],
      [
        "Ġf",
        "e"
      ],
      [
        "ac",
        "le"
      ],
      [
        "am",
        "ina"
      ],
      [
        "Ġw",
        "orm"
      ],
      [
        "Ġg",
        "ar"
      ],
      [
        "su",
        "preme"
      ],
      [
        "Ġch",
        "osen"
      ],
      [
        "Ġinflict",
        "ed"
      ],
      [
        "ry",
        "u"
      ],
      [
        "sp",
        "ringans"
      ],
      [
        "Ġrandom",
        "ly"
      ],
      [
        "va",
        "almonica"
      ],
      [
        "ouvel",
        "les"
      ],
      [
        ".",
        "."
      ],
      [
        "1",
        "23"
      ],
      [
        "b",
        "reak"
      ],
      [
        "g",
        "uard"
      ],
      [
        "g",
        "agaga"
      ],
      [
        "m",
        "elodious"
      ],
      [
        "n",
        "ordic"
      ],
      [
        "t",
        "ellarknight"
      ],
      [
        "t",
        "earlaments"
      ],
      [
        "w",
        "asp"
      ],
      [
        "Ġs",
        "alamangreat"
      ],
      [
        "Ġs",
        "acred"
      ],
      [
        "ro",
        "w"
      ],
      [
        "Ġl",
        "uster"
      ],
      [
        "Ġ3",
        "200"
      ],
      [
        "Ġ3",
        "300"
      ],
      [
        "ama",
        "ze"
      ],
      [
        "um",
        "i"
      ],
      [
        "Ġposition",
        "s"
      ],
      [
        "ad",
        "o"
      ],
      [
        "fl",
        "uffal"
      ],
      [
        "il",
        "i"
      ],
      [
        "Ġmo",
        "ve"
      ],
      [
        "ick",
        "ed"
      ],
      [
        "rik",
        "ka"
      ],
      [
        "can",
        "a"
      ],
      [
        "ms",
        "on"
      ],
      [
        "mal",
        "iss"
      ],
      [
        "Ġwi",
        "ld"
      ],
      [
        "pengu",
        "in"
      ],
      [
        "a",
        "e"
      ],
      [
        "Ġc",
        "ir"
      ],
      [
        "ou",
        "gh"
      ],
      [
        "Ġs",
        "m"
      ],
      [
        "Ġs",
        "or"
      ],
      [
        "Ġp",
        "a"
      ],
      [
        "Ġw",
        "ave"
      ],
      [
        "Ġsu",
        "ship"
      ],
      [
        "rag",
        "nar"
      ],
      [
        "Ġne",
        "ph"
      ],
      [
        "Ġra",
        "idraptor"
      ],
      [
        "Ġmo",
        "de"
      ],
      [
        "inj",
        "itsu"
      ],
      [
        "yl",
        "ph"
      ],
      [
        "Ġog",
        "re"
      ],
      [
        "tr",
        "ue"
      ],
      [
        "Ġmul",
        "ti"
      ],
      [
        "b",
        "anish"
      ],
      [
        "d",
        "ge"
      ],
      [
        "e",
        "e"
      ],
      [
        "e",
        "vol"
      ],
      [
        "t",
        "on"
      ],
      [
        "v",
        "ampire"
      ],
      [
        "v",
        "irtual"
      ],
      [
        "ar",
        "n"
      ],
      [
        "st",
        "ardust"
      ],
      [
        "se",
        "l"
      ],
      [
        "el",
        "ff"
      ],
      [
        "Ġde",
        "crease"
      ],
      [
        "Ġspe",
        "c"
      ],
      [
        "Ġg",
        "ard"
      ],
      [
        "Ġh",
        "eart"
      ],
      [
        "um",
        "er"
      ],
      [
        "un",
        "ch"
      ],
      [
        "Ġpl",
        "an"
      ],
      [
        "Ġz",
        "ero"
      ],
      [
        "ph",
        "onic"
      ],
      [
        "Ġshuffle",
        "d"
      ],
      [
        "Ġcl",
        "aw"
      ],
      [
        "can",
        "ic"
      ],
      [
        "for",
        "t"
      ],
      [
        "Ġgen",
        "er"
      ],
      [
        "Ġgen",
        "eraider"
      ],
      [
        "magic",
        "ian"
      ],
      [
        "Ġag",
        "ain"
      ],
      [
        "zo",
        "odiac"
      ],
      [
        "do",
        "adic"
      ],
      [
        "Ġho",
        "le"
      ],
      [
        "dog",
        "matika"
      ],
      [
        "chan",
        "ge"
      ],
      [
        "Ġfigh",
        "ter"
      ],
      [
        "b",
        "ell"
      ],
      [
        "d",
        "le"
      ],
      [
        "p",
        "tion"
      ],
      [
        "Ġt",
        "re"
      ],
      [
        "Ġt",
        "iger"
      ],
      [
        "st",
        "ial"
      ],
      [
        "am",
        "id"
      ],
      [
        "Ġa",
        "ble"
      ],
      [
        "Ġg",
        "ig"
      ],
      [
        "Ġg",
        "reat"
      ],
      [
        "sc",
        "areclaw"
      ],
      [
        "sub",
        "terror"
      ],
      [
        "Ġn",
        "aturia"
      ],
      [
        "Ġhand",
        "s"
      ],
      [
        "Ġas",
        "sault"
      ],
      [
        "Ġfor",
        "bidden"
      ],
      [
        "Ġun",
        "equip"
      ],
      [
        "Ġk",
        "e"
      ],
      [
        "im",
        "era"
      ],
      [
        "us",
        "ylph"
      ],
      [
        "mo",
        "th"
      ],
      [
        "Ġse",
        "al"
      ],
      [
        "Ġsp",
        "ace"
      ],
      [
        "Ġgen",
        "ex"
      ],
      [
        "ko",
        "zmo"
      ],
      [
        "mag",
        "istus"
      ],
      [
        "mag",
        "ikey"
      ],
      [
        "aph",
        "ys"
      ],
      [
        "Ġneph",
        "thys"
      ],
      [
        "b",
        "a"
      ],
      [
        "b",
        "r"
      ],
      [
        "b",
        "urning"
      ],
      [
        "k",
        "rawler"
      ],
      [
        "Ġ",
        "#"
      ],
      [
        "Ġt",
        "ail"
      ],
      [
        "Ġc",
        "y"
      ],
      [
        "in",
        "zektor"
      ],
      [
        "ri",
        "c"
      ],
      [
        "att",
        "er"
      ],
      [
        "Ġde",
        "fen"
      ],
      [
        "Ġbe",
        "en"
      ],
      [
        "ot",
        "ail"
      ],
      [
        "Ġre",
        "p"
      ],
      [
        "Ġre",
        "al"
      ],
      [
        "un",
        "til"
      ],
      [
        "un",
        "chained"
      ],
      [
        "Ġst",
        "one"
      ],
      [
        "Ġne",
        "o"
      ],
      [
        "Ġne",
        "w"
      ],
      [
        "Ġsh",
        "ow"
      ],
      [
        "ph",
        "in"
      ],
      [
        "ier",
        "atic"
      ],
      [
        "Ġsk",
        "ip"
      ],
      [
        "Ġme",
        "k"
      ],
      [
        "adi",
        "um"
      ],
      [
        "sk",
        "bot"
      ],
      [
        "Ġstrik",
        "e"
      ],
      [
        "li",
        "bromancer"
      ],
      [
        "din",
        "owrestler"
      ],
      [
        "sm",
        "ith"
      ],
      [
        "Ġfort",
        "ress"
      ],
      [
        "Ġmention",
        "ed"
      ],
      [
        "Ġash",
        "ened"
      ],
      [
        "a",
        "ze"
      ],
      [
        "g",
        "r"
      ],
      [
        "l",
        "ayer"
      ],
      [
        "m",
        "alefic"
      ],
      [
        "Ġs",
        "age"
      ],
      [
        "Ġf",
        "o"
      ],
      [
        "Ġf",
        "abled"
      ],
      [
        "am",
        "er"
      ],
      [
        "Ġa",
        "sc"
      ],
      [
        "Ġw",
        "all"
      ],
      [
        "ge",
        "ar"
      ],
      [
        "ig",
        "n"
      ],
      [
        "Ġpo",
        "ison"
      ],
      [
        "ir",
        "al"
      ],
      [
        "ak",
        "ening"
      ],
      [
        "Ġch",
        "alice"
      ],
      [
        "pl",
        "ace"
      ],
      [
        "ub",
        "el"
      ],
      [
        "val",
        "kyrie"
      ],
      [
        "Ġey",
        "es"
      ],
      [
        "mek",
        "lord"
      ],
      [
        "Ġreb",
        "orn"
      ],
      [
        "Ġcro",
        "ss"
      ],
      [
        "âĺ",
        "ħ"
      ],
      [
        "Ġtal",
        "ker"
      ],
      [
        "c",
        "y"
      ],
      [
        "g",
        "usto"
      ],
      [
        "g",
        "ishki"
      ],
      [
        "l",
        "aval"
      ],
      [
        "p",
        "os"
      ],
      [
        "is",
        "er"
      ],
      [
        "el",
        "er"
      ],
      [
        "Ġde",
        "s"
      ],
      [
        "ra",
        "y"
      ],
      [
        "Ġw",
        "icked"
      ],
      [
        "Ġh",
        "ar"
      ],
      [
        "th",
        "ical"
      ],
      [
        "per",
        "formage"
      ],
      [
        "Ġbl",
        "o"
      ],
      [
        "dark",
        "lord"
      ],
      [
        "Ġleg",
        "endary"
      ],
      [
        "Ġam",
        "ount"
      ],
      [
        "infer",
        "nity"
      ],
      [
        "Ġrem",
        "ain"
      ],
      [
        "amp",
        "ion"
      ],
      [
        "Ġsil",
        "ver"
      ],
      [
        "ery",
        "man"
      ],
      [
        "gra",
        "ve"
      ],
      [
        "Ġjust",
        "ice"
      ],
      [
        "fr",
        "ame"
      ],
      [
        "Ġplac",
        "ed"
      ],
      [
        "elff",
        "y"
      ],
      [
        ")",
        ".âĹı"
      ],
      [
        "b",
        "ird"
      ],
      [
        "c",
        "i"
      ],
      [
        "h",
        "eart"
      ],
      [
        "p",
        "s"
      ],
      [
        "p",
        "ic"
      ],
      [
        "t",
        "indangle"
      ],
      [
        "Ġt",
        "ra"
      ],
      [
        "ar",
        "med"
      ],
      [
        "Ġc",
        "ar"
      ],
      [
        "in",
        "ation"
      ],
      [
        "Ġf",
        "ly"
      ],
      [
        "ri",
        "lu"
      ],
      [
        "ti",
        "f"
      ],
      [
        "Ġd",
        "ragunity"
      ],
      [
        "Ġg",
        "aia"
      ],
      [
        "ly",
        "rilu"
      ],
      [
        "ic",
        "ious"
      ],
      [
        "Ġal",
        "ly"
      ],
      [
        "ill",
        "en"
      ],
      [
        "ill",
        "usion"
      ],
      [
        "Ġcom",
        "m"
      ],
      [
        "Ġy",
        "ang"
      ],
      [
        "entur",
        "er"
      ],
      [
        "Ġste",
        "el"
      ],
      [
        "Ġmas",
        "k"
      ],
      [
        "shi",
        "ranui"
      ],
      [
        "pred",
        "aplant"
      ],
      [
        "dinom",
        "orphia"
      ],
      [
        "gal",
        "ith"
      ],
      [
        "lyrilu",
        "sc"
      ],
      [
        "c",
        "rusadia"
      ],
      [
        "f",
        "ly"
      ],
      [
        "g",
        "aia"
      ],
      [
        "h",
        "ead"
      ],
      [
        "h",
        "mech"
      ],
      [
        "k",
        "ashtira"
      ],
      [
        "o",
        "b"
      ],
      [
        "o",
        "jama"
      ],
      [
        "p",
        "ower"
      ],
      [
        "t",
        "a"
      ],
      [
        "y",
        "i"
      ],
      [
        "y",
        "ummy"
      ],
      [
        "Ġ",
        "ve"
      ],
      [
        "Ġt",
        "ransfer"
      ],
      [
        "Ġc",
        "ra"
      ],
      [
        "Ġc",
        "ast"
      ],
      [
        "Ġe",
        "mer"
      ],
      [
        "Ġd",
        "om"
      ],
      [
        "Ġ\"",
        "@"
      ],
      [
        "Ġw",
        "in"
      ],
      [
        "Ġsu",
        "preme"
      ],
      [
        "or",
        "cust"
      ],
      [
        "Ġin",
        "fin"
      ],
      [
        "Ġm",
        "ind"
      ],
      [
        "Ġn",
        "ecro"
      ],
      [
        "Ġmonsters",
        "gains"
      ],
      [
        "Ġac",
        "c"
      ],
      [
        "Ġne",
        "kroz"
      ],
      [
        "Ġch",
        "ampion"
      ],
      [
        "til",
        "ian"
      ],
      [
        "Ġr",
        "u"
      ],
      [
        "Ġfl",
        "ower"
      ],
      [
        "Ġv",
        "ampire"
      ],
      [
        "mat",
        "hmech"
      ],
      [
        "ice",
        "jade"
      ],
      [
        "ik",
        "e"
      ],
      [
        "ler",
        "ia"
      ],
      [
        "gen",
        "esis"
      ],
      [
        "lant",
        "e"
      ],
      [
        "Ġnight",
        "mare"
      ],
      [
        "Ġter",
        "ror"
      ],
      [
        "art",
        "mage"
      ],
      [
        "metal",
        "foes"
      ],
      [
        "Ġunder",
        "world"
      ],
      [
        "Ġmyst",
        "ical"
      ],
      [
        "adv",
        "enturer"
      ],
      [
        "Ġsor",
        "cer"
      ],
      [
        "grave",
        "keeper"
      ],
      [
        "tilian",
        "ne"
      ],
      [
        "g",
        "i"
      ],
      [
        "g",
        "l"
      ],
      [
        "er",
        "ce"
      ],
      [
        "ou",
        "se"
      ],
      [
        "Ġf",
        "ro"
      ],
      [
        "Ġd",
        "anger"
      ],
      [
        "pp",
        "er"
      ],
      [
        "ot",
        "lan"
      ],
      [
        "yn",
        "et"
      ],
      [
        "Ġk",
        "n"
      ],
      [
        "id",
        "o"
      ],
      [
        "if",
        "t"
      ],
      [
        "it",
        "rack"
      ],
      [
        "Ġv",
        "er"
      ],
      [
        "ai",
        "ka"
      ],
      [
        "ho",
        "ti"
      ],
      [
        "av",
        "en"
      ],
      [
        "Ġsp",
        "ider"
      ],
      [
        "Ġsc",
        "rap"
      ],
      [
        "ni",
        "um"
      ],
      [
        "Ġflame",
        "s"
      ],
      [
        "bu",
        "ster"
      ],
      [
        "Ġarmor",
        "ed"
      ],
      [
        "Ġsil",
        "ent"
      ],
      [
        "app",
        "liancer"
      ],
      [
        "Ġmet",
        "e"
      ],
      [
        "ragnar",
        "aika"
      ],
      [
        "illen",
        "nium"
      ],
      [
        "c",
        "ant"
      ],
      [
        "n",
        "d"
      ],
      [
        "Ġt",
        "amer"
      ],
      [
        "ti",
        "st"
      ],
      [
        "Ġb",
        "all"
      ],
      [
        "am",
        "anc"
      ],
      [
        "Ġa",
        "w"
      ],
      [
        "or",
        "rel"
      ],
      [
        "Ġh",
        "el"
      ],
      [
        "Ġm",
        "al"
      ],
      [
        "Ġn",
        "or"
      ],
      [
        "Ġmonsters",
        "while"
      ],
      [
        "si",
        "k"
      ],
      [
        "ir",
        "th"
      ],
      [
        "Ġearth",
        "bound"
      ],
      [
        "ep",
        "h"
      ],
      [
        "ip",
        "ator"
      ],
      [
        "Ġfl",
        "am"
      ],
      [
        "Ġse",
        "ed"
      ],
      [
        "Ġpris",
        "on"
      ],
      [
        "her",
        "ald"
      ],
      [
        "hero",
        "ic"
      ],
      [
        "mek",
        "k"
      ],
      [
        "Ġhead",
        "s"
      ],
      [
        "Ġpred",
        "ator"
      ],
      [
        "âĺ",
        "Ĩ"
      ],
      [
        "fort",
        "une"
      ],
      [
        "tif",
        "act"
      ],
      [
        "lante",
        "an"
      ],
      [
        "cant",
        "ation"
      ],
      [
        "amanc",
        "ipator"
      ],
      [
        "3",
        "50"
      ],
      [
        "4",
        "50"
      ],
      [
        "b",
        "ack"
      ],
      [
        "k",
        "aiju"
      ],
      [
        "m",
        "imighoul"
      ],
      [
        "r",
        "in"
      ],
      [
        "u",
        "ki"
      ],
      [
        "Ġ",
        "amazoness"
      ],
      [
        "de",
        "ss"
      ],
      [
        "Ġb",
        "ub"
      ],
      [
        "Ġb",
        "ug"
      ],
      [
        "Ġp",
        "an"
      ],
      [
        "Ġd",
        "ance"
      ],
      [
        "Ġa",
        "v"
      ],
      [
        "Ġa",
        "z"
      ],
      [
        "Ġw",
        "e"
      ],
      [
        "Ġg",
        "u"
      ],
      [
        "Ġm",
        "elodious"
      ],
      [
        "Ġdo",
        "ll"
      ],
      [
        "Ġdragon",
        "s"
      ],
      [
        "ul",
        "timate"
      ],
      [
        "Ġdiscard",
        "s"
      ],
      [
        "ai",
        "den"
      ],
      [
        "ist",
        "ina"
      ],
      [
        "Ġj",
        "ud"
      ],
      [
        "Ġsp",
        "iral"
      ],
      [
        "Ġtak",
        "en"
      ],
      [
        "gen",
        "eraider"
      ],
      [
        "cha",
        "os"
      ],
      [
        "ira",
        "ge"
      ],
      [
        "oud",
        "ian"
      ],
      [
        "Ġry",
        "u"
      ],
      [
        "k",
        "arakuri"
      ],
      [
        "l",
        "and"
      ],
      [
        "o",
        "ver"
      ],
      [
        "r",
        "unick"
      ],
      [
        "y",
        "on"
      ],
      [
        "ar",
        "ing"
      ],
      [
        "Ġs",
        "ur"
      ],
      [
        "Ġmonster",
        "you"
      ],
      [
        "Ġf",
        "al"
      ],
      [
        "ti",
        "ve"
      ],
      [
        "Ġd",
        "ust"
      ],
      [
        "am",
        "ili"
      ],
      [
        "Ġg",
        "hostrick"
      ],
      [
        "Ġg",
        "adget"
      ],
      [
        "Ġm",
        "echa"
      ],
      [
        "Ġfi",
        "erce"
      ],
      [
        "Ġre",
        "vi"
      ],
      [
        "Ġlight",
        "sworn"
      ],
      [
        "Ġlink",
        "ed"
      ],
      [
        "os",
        "layer"
      ],
      [
        "Ġdraw",
        "ing"
      ],
      [
        "ron",
        "g"
      ],
      [
        "ik",
        "er"
      ],
      [
        "ze",
        "fra"
      ],
      [
        "uto",
        "pic"
      ],
      [
        "Ġtr",
        "ue"
      ],
      [
        "Ġmorph",
        "tronic"
      ],
      [
        "amaze",
        "ment"
      ],
      [
        "Ġbub",
        "ble"
      ],
      [
        "amili",
        "ar"
      ],
      [
        "9",
        "50"
      ],
      [
        "b",
        "ar"
      ],
      [
        "c",
        "u"
      ],
      [
        "f",
        "ossil"
      ],
      [
        "g",
        "ment"
      ],
      [
        "i",
        "b"
      ],
      [
        "i",
        "pe"
      ],
      [
        "m",
        "ikanko"
      ],
      [
        "n",
        "adium"
      ],
      [
        "p",
        "ar"
      ],
      [
        "s",
        "al"
      ],
      [
        "y",
        "ang"
      ],
      [
        "y",
        "ubel"
      ],
      [
        "Ġ",
        "right"
      ],
      [
        "Ġt",
        "an"
      ],
      [
        "Ġc",
        "rus"
      ],
      [
        "Ġf",
        "eather"
      ],
      [
        "Ġe",
        "ter"
      ],
      [
        "Ġb",
        "randed"
      ],
      [
        "le",
        "g"
      ],
      [
        "Ġde",
        "ep"
      ],
      [
        "Ġw",
        "att"
      ],
      [
        "or",
        "k"
      ],
      [
        "Ġm",
        "ale"
      ],
      [
        "Ġbe",
        "he"
      ],
      [
        "tra",
        "pt"
      ],
      [
        "Ġlight",
        "ning"
      ],
      [
        "ul",
        "a"
      ],
      [
        "Ġk",
        "a"
      ],
      [
        "gat",
        "e"
      ],
      [
        "Ġsh",
        "e"
      ],
      [
        "ex",
        "t"
      ],
      [
        "Ġbl",
        "aster"
      ],
      [
        "Ġbl",
        "ader"
      ],
      [
        "ver",
        "se"
      ],
      [
        "Ġbo",
        "o"
      ],
      [
        "Ġapp",
        "li"
      ],
      [
        "Ġad",
        "j"
      ],
      [
        "rac",
        "tion"
      ],
      [
        "sk",
        "ull"
      ],
      [
        "iac",
        "tor"
      ],
      [
        "sword",
        "soul"
      ],
      [
        "Ġdefen",
        "der"
      ],
      [
        "sik",
        "il"
      ],
      [
        "b",
        "ug"
      ],
      [
        "c",
        "ubic"
      ],
      [
        "d",
        "od"
      ],
      [
        "i",
        "ster"
      ],
      [
        "i",
        "el"
      ],
      [
        "j",
        "est"
      ],
      [
        "m",
        "itsurugi"
      ],
      [
        "n",
        "y"
      ],
      [
        "o",
        "y"
      ],
      [
        "Ġt",
        "ran"
      ],
      [
        "Ġt",
        "rickstar"
      ],
      [
        "Ġt",
        "istina"
      ],
      [
        "Ġf",
        "ang"
      ],
      [
        "ac",
        "tor"
      ],
      [
        "Ġp",
        "ain"
      ],
      [
        "Ġde",
        "v"
      ],
      [
        "vel",
        "l"
      ],
      [
        "Ġcon",
        "stellar"
      ],
      [
        "Ġm",
        "is"
      ],
      [
        "Ġn",
        "ow"
      ],
      [
        "Ġdark",
        "lord"
      ],
      [
        "om",
        "a"
      ],
      [
        "Ġbeast",
        "s"
      ],
      [
        "im",
        "p"
      ],
      [
        "Ġwind",
        "s"
      ],
      [
        "Ġdetach",
        "ed"
      ],
      [
        "sy",
        "m"
      ],
      [
        "ma",
        "jespecter"
      ],
      [
        "Ġsp",
        "ark"
      ],
      [
        "Ġsc",
        "or"
      ],
      [
        "val",
        "ley"
      ],
      [
        "ko",
        "a"
      ],
      [
        "Ġaddition",
        "al"
      ],
      [
        "Ġcreat",
        "ion"
      ],
      [
        "Ġho",
        "pe"
      ],
      [
        "Ġchar",
        "ge"
      ],
      [
        "Ġhy",
        "d"
      ],
      [
        "battle",
        "wasp"
      ],
      [
        "umer",
        "on"
      ],
      [
        "Ġreal",
        "m"
      ],
      [
        "Ġbehe",
        "moth"
      ],
      [
        "d",
        "y"
      ],
      [
        "d",
        "ia"
      ],
      [
        "h",
        "y"
      ],
      [
        "m",
        "ite"
      ],
      [
        "n",
        "ecro"
      ],
      [
        "v",
        "aylantz"
      ],
      [
        "z",
        "w"
      ],
      [
        "at",
        "ellarknight"
      ],
      [
        "de",
        "skbot"
      ],
      [
        "is",
        "m"
      ],
      [
        "in",
        "fin"
      ],
      [
        "ac",
        "ent"
      ],
      [
        "ac",
        "tic"
      ],
      [
        "le",
        "t"
      ],
      [
        "Ġp",
        "i"
      ],
      [
        "Ġp",
        "al"
      ],
      [
        "Ġd",
        "id"
      ],
      [
[...]
